
#ifndef MODEL_DATA_H
#define MODEL_DATA_H

#include <stdint.h>

const unsigned char model_data[] = { 0x20, 0x00, 0x00, 0x00, 0x54, 0x46, 0x4c, 0x33, 0x00, 0x00, 0x00, 0x00, 0x14, 0x00, 0x20, 0x00, 0x1c, 0x00, 0x18, 0x00, 0x14, 0x00, 0x10, 0x00, 0x0c, 0x00, 0x00, 0x00, 0x08, 0x00, 0x04, 0x00, 0x14, 0x00, 0x00, 0x00, 0x1c, 0x00, 0x00, 0x00, 0x88, 0x00, 0x00, 0x00, 0xe0, 0x00, 0x00, 0x00, 0xe0, 0x0f, 0x00, 0x00, 0xf0, 0x0f, 0x00, 0x00, 0x70, 0x29, 0x00, 0x00, 0x03, 0x00, 0x00, 0x00, 0x01, 0x00, 0x00, 0x00, 0x04, 0x00, 0x00, 0x00, 0xa2, 0xed, 0xff, 0xff, 0x0c, 0x00, 0x00, 0x00, 0x1c, 0x00, 0x00, 0x00, 0x3c, 0x00, 0x00, 0x00, 0x0f, 0x00, 0x00, 0x00, 0x73, 0x65, 0x72, 0x76, 0x69, 0x6e, 0x67, 0x5f, 0x64, 0x65, 0x66, 0x61, 0x75, 0x6c, 0x74, 0x00, 0x01, 0x00, 0x00, 0x00, 0x04, 0x00, 0x00, 0x00, 0x94, 0xff, 0xff, 0xff, 0x1a, 0x00, 0x00, 0x00, 0x04, 0x00, 0x00, 0x00, 0x08, 0x00, 0x00, 0x00, 0x6f, 0x75, 0x74, 0x70, 0x75, 0x74, 0x5f, 0x30, 0x00, 0x00, 0x00, 0x00, 0x01, 0x00, 0x00, 0x00, 0x04, 0x00, 0x00, 0x00, 0xe6, 0xef, 0xff, 0xff, 0x04, 0x00, 0x00, 0x00, 0x0b, 0x00, 0x00, 0x00, 0x69, 0x6e, 0x70, 0x75, 0x74, 0x5f, 0x6c, 0x61, 0x79, 0x65, 0x72, 0x00, 0x02, 0x00, 0x00, 0x00, 0x34, 0x00, 0x00, 0x00, 0x04, 0x00, 0x00, 0x00, 0xdc, 0xff, 0xff, 0xff, 0x1d, 0x00, 0x00, 0x00, 0x04, 0x00, 0x00, 0x00, 0x13, 0x00, 0x00, 0x00, 0x43, 0x4f, 0x4e, 0x56, 0x45, 0x52, 0x53, 0x49, 0x4f, 0x4e, 0x5f, 0x4d, 0x45, 0x54, 0x41, 0x44, 0x41, 0x54, 0x41, 0x00, 0x08, 0x00, 0x0c, 0x00, 0x08, 0x00, 0x04, 0x00, 0x08, 0x00, 0x00, 0x00, 0x1c, 0x00, 0x00, 0x00, 0x04, 0x00, 0x00, 0x00, 0x13, 0x00, 0x00, 0x00, 0x6d, 0x69, 0x6e, 0x5f, 0x72, 0x75, 0x6e, 0x74, 0x69, 0x6d, 0x65, 0x5f, 0x76, 0x65, 0x72, 0x73, 0x69, 0x6f, 0x6e, 0x00, 0x1e, 0x00, 0x00, 0x00, 0xfc, 0x0e, 0x00, 0x00, 0xf4, 0x0e, 0x00, 0x00, 0xe0, 0x0e, 0x00, 0x00, 0xc4, 0x0e, 0x00, 0x00, 0xb0, 0x0e, 0x00, 0x00, 0x94, 0x0e, 0x00, 0x00, 0x78, 0x0e, 0x00, 0x00, 0x4c, 0x0e, 0x00, 0x00, 0x5c, 0x0d, 0x00, 0x00, 0xcc, 0x0c, 0x00, 0x00, 0xbc, 0x08, 0x00, 0x00, 0x2c, 0x08, 0x00, 0x00, 0x1c, 0x02, 0x00, 0x00, 0xcc, 0x01, 0x00, 0x00, 0xfc, 0x00, 0x00, 0x00, 0xf4, 0x00, 0x00, 0x00, 0xec, 0x00, 0x00, 0x00, 0xe4, 0x00, 0x00, 0x00, 0xdc, 0x00, 0x00, 0x00, 0xd4, 0x00, 0x00, 0x00, 0xcc, 0x00, 0x00, 0x00, 0xc4, 0x00, 0x00, 0x00, 0xbc, 0x00, 0x00, 0x00, 0xb4, 0x00, 0x00, 0x00, 0xac, 0x00, 0x00, 0x00, 0xa4, 0x00, 0x00, 0x00, 0x9c, 0x00, 0x00, 0x00, 0x94, 0x00, 0x00, 0x00, 0x74, 0x00, 0x00, 0x00, 0x04, 0x00, 0x00, 0x00, 0xd6, 0xf0, 0xff, 0xff, 0x04, 0x00, 0x00, 0x00, 0x60, 0x00, 0x00, 0x00, 0x0c, 0x00, 0x00, 0x00, 0x08, 0x00, 0x0e, 0x00, 0x08, 0x00, 0x04, 0x00, 0x08, 0x00, 0x00, 0x00, 0x10, 0x00, 0x00, 0x00, 0x28, 0x00, 0x00, 0x00, 0x00, 0x00, 0x06, 0x00, 0x08, 0x00, 0x04, 0x00, 0x06, 0x00, 0x00, 0x00, 0x04, 0x00, 0x00, 0x00, 0x01, 0x00, 0x00, 0x00, 0xeb, 0x03, 0x00, 0x00, 0x0c, 0x00, 0x18, 0x00, 0x14, 0x00, 0x10, 0x00, 0x0c, 0x00, 0x04, 0x00, 0x0c, 0x00, 0x00, 0x00, 0xbc, 0x14, 0xa3, 0x47, 0xb2, 0xce, 0xa9, 0x7d, 0x02, 0x00, 0x00, 0x00, 0x02, 0x00, 0x00, 0x00, 0x04, 0x00, 0x00, 0x00, 0x06, 0x00, 0x00, 0x00, 0x32, 0x2e, 0x32, 0x30, 0x2e, 0x30, 0x00, 0x00, 0x42, 0xf1, 0xff, 0xff, 0x04, 0x00, 0x00, 0x00, 0x10, 0x00, 0x00, 0x00, 0x31, 0x2e, 0x31, 0x34, 0x2e, 0x30, 0x00, 0x00, 0x00, 0x00, 0x00, 0x00, 0x00, 0x00, 0x00, 0x00, 0x34, 0xd9, 0xff, 0xff, 0x38, 0xd9, 0xff, 0xff, 0x3c, 0xd9, 0xff, 0xff, 0x40, 0xd9, 0xff, 0xff, 0x44, 0xd9, 0xff, 0xff, 0x48, 0xd9, 0xff, 0xff, 0x4c, 0xd9, 0xff, 0xff, 0x50, 0xd9, 0xff, 0xff, 0x54, 0xd9, 0xff, 0xff, 0x58, 0xd9, 0xff, 0xff, 0x5c, 0xd9, 0xff, 0xff, 0x60, 0xd9, 0xff, 0xff, 0x64, 0xd9, 0xff, 0xff, 0x92, 0xf1, 0xff, 0xff, 0x04, 0x00, 0x00, 0x00, 0xc0, 0x00, 0x00, 0x00, 0xd3, 0x00, 0x33, 0xb4, 0x30, 0xbf, 0x4a, 0x81, 0xef, 0xe0, 0x23, 0x92, 0x85, 0xbe, 0x8c, 0x3e, 0x8c, 0xe8, 0x81, 0x4e, 0x25, 0x00, 0xcb, 0x4f, 0x00, 0xed, 0x47, 0x81, 0xe0, 0xba, 0x3d, 0xb3, 0x1b, 0xe6, 0x58, 0x84, 0x14, 0x0c, 0xc8, 0x0b, 0x10, 0x1c, 0x81, 0x25, 0xcf, 0xdf, 0x8f, 0x3d, 0x00, 0xe1, 0x00, 0x29, 0x1e, 0x97, 0x00, 0x69, 0xd0, 0x81, 0xb0, 0x71, 0xf1, 0x8a, 0xe0, 0x1a, 0x26, 0x81, 0xcc, 0x00, 0x0d, 0x85, 0xb5, 0x2b, 0x46, 0x0e, 0x6b, 0x9b, 0xe6, 0xb4, 0x6b, 0x9d, 0x3d, 0xdb, 0x7f, 0xd3, 0x47, 0x00, 0x60, 0x5c, 0x5f, 0x39, 0x77, 0xa3, 0x6a, 0x7f, 0x3c, 0xd9, 0x33, 0xea, 0x6a, 0x68, 0xd5, 0xcc, 0x0c, 0x44, 0xeb, 0xe3, 0x33, 0x7f, 0x33, 0x81, 0xd1, 0xa6, 0x4d, 0x8c, 0x9e, 0x88, 0x24, 0x84, 0xd5, 0x12, 0xba, 0x6c, 0x86, 0xe8, 0xb2, 0x6a, 0xda, 0x19, 0xbc, 0x00, 0x81, 0x48, 0x38, 0x19, 0x6a, 0x73, 0x00, 0x4a, 0x7f, 0x19, 0x1c, 0x75, 0x00, 0x23, 0xe7, 0x9c, 0x4e, 0xdb, 0xde, 0xeb, 0x7f, 0x0d, 0x29, 0xdc, 0x30, 0xd2, 0x81, 0xea, 0x2d, 0x1a, 0xa8, 0x13, 0x3c, 0x00, 0xea, 0xf1, 0x32, 0xd4, 0x51, 0x10, 0xcb, 0x59, 0xe7, 0x00, 0x8b, 0x48, 0x73, 0x7a, 0x81, 0x6b, 0x00, 0xe3, 0xe7, 0x71, 0xd2, 0xc1, 0x81, 0x63, 0x27, 0xe2, 0xb8, 0x45, 0x5e, 0xf2, 0xff, 0xff, 0x04, 0x00, 0x00, 0x00, 0x40, 0x00, 0x00, 0x00, 0xf4, 0x0a, 0x00, 0x00, 0x32, 0x32, 0x00, 0x00, 0x67, 0x0d, 0x00, 0x00, 0x0e, 0x0c, 0x00, 0x00, 0x80, 0x14, 0x00, 0x00, 0x00, 0x00, 0x00, 0x00, 0x0e, 0x17, 0x00, 0x00, 0x8c, 0x1d, 0x00, 0x00, 0x78, 0x0d, 0x00, 0x00, 0xfc, 0x20, 0x00, 0x00, 0x09, 0x33, 0x00, 0x00, 0x6d, 0x1f, 0x00, 0x00, 0x1a, 0x13, 0x00, 0x00, 0xa3, 0x22, 0x00, 0x00, 0x2c, 0x30, 0x00, 0x00, 0x6d, 0x0c, 0x00, 0x00, 0xaa, 0xf2, 0xff, 0xff, 0x04, 0x00, 0x00, 0x00, 0x00, 0x06, 0x00, 0x00, 0xec, 0x6e, 0x23, 0x4e, 0x00, 0xdc, 0xd8, 0x00, 0x2b, 0xb4, 0x2d, 0x31, 0x16, 0x65, 0x49, 0x71, 0xd5, 0x34, 0x16, 0x6e, 0x00, 0xbf, 0xcc, 0x00, 0x5c, 0x00, 0x00, 0x61, 0x32, 0x61, 0x00, 0x63, 0x14, 0x35, 0x00, 0x48, 0x48, 0xcb, 0xb7, 0x00, 0x7f, 0xee, 0x4a, 0x25, 0xd9, 0x38, 0x47, 0x4b, 0x75, 0x00, 0x5e, 0xe3, 0xe6, 0x00, 0x25, 0x00, 0x38, 0xef, 0x42, 0x1a, 0x48, 0x53, 0xec, 0x00, 0x21, 0x27, 0x67, 0xa1, 0x2c, 0x11, 0x3f, 0x17, 0x7f, 0x26, 0x3d, 0xdb, 0x24, 0x10, 0xd3, 0xe4, 0x36, 0x0e, 0x68, 0xac, 0x00, 0x00, 0x33, 0x0d, 0x53, 0xe8, 0x27, 0x00, 0x19, 0x18, 0x00, 0x39, 0x36, 0x39, 0x4b, 0x2e, 0x19, 0x00, 0x00, 0xbd, 0x39, 0x2b, 0x13, 0xcf, 0x6c, 0xe0, 0x00, 0x43, 0x39, 0x00, 0x3e, 0x31, 0x00, 0x00, 0x40, 0xe0, 0x2c, 0x37, 0x47, 0xbd, 0x68, 0x12, 0xce, 0x00, 0x7f, 0xdf, 0x5b, 0x00, 0x0d, 0x34, 0x00, 0xba, 0x15, 0x0d, 0x00, 0xc0, 0x30, 0x1f, 0x20, 0x00, 0x21, 0x1e, 0xa8, 0xcd, 0xb6, 0x18, 0x5f, 0x34, 0x00, 0x00, 0x16, 0x3d, 0x00, 0x74, 0x14, 0xc0, 0x00, 0x66, 0xad, 0xb3, 0xc1, 0x00, 0x4d, 0x55, 0xcb, 0xe7, 0x62, 0x54, 0xe1, 0x00, 0x32, 0xc0, 0xa3, 0x62, 0xe3, 0x81, 0xe4, 0x00, 0x78, 0x61, 0x00, 0x45, 0x3d, 0x62, 0x9d, 0x53, 0x00, 0x00, 0x00, 0x00, 0x00, 0x63, 0x00, 0x6f, 0x6e, 0x3b, 0xbb, 0x5c, 0xb1, 0x00, 0x5f, 0xe6, 0x66, 0x69, 0x00, 0xaf, 0x00, 0x49, 0x72, 0x7f, 0x75, 0x3e, 0xc1, 0x49, 0xc9, 0x51, 0x00, 0x90, 0x3b, 0x00, 0x33, 0xc6, 0xe3, 0x1b, 0x1a, 0x31, 0x00, 0x3c, 0x26, 0x34, 0x23, 0x32, 0x00, 0x00, 0x4c, 0xe2, 0xf0, 0xe9, 0xe6, 0x00, 0xb7, 0x00, 0x29, 0x0e, 0x99, 0x21, 0x00, 0x51, 0x00, 0xf2, 0x43, 0xdf, 0x00, 0x00, 0x11, 0xdb, 0xba, 0xd0, 0x11, 0x3e, 0x81, 0xe9, 0x00, 0x43, 0xb2, 0x00, 0x32, 0xf1, 0xc9, 0x00, 0x14, 0xd3, 0x9a, 0xca, 0x22, 0x44, 0x91, 0xf3, 0x00, 0x4b, 0xab, 0xf5, 0x25, 0xc8, 0x70, 0x25, 0x1e, 0xcc, 0x29, 0x23, 0x77, 0x45, 0x45, 0x59, 0x00, 0x61, 0x7f, 0xcf, 0x00, 0x00, 0x36, 0x13, 0x25, 0x22, 0x24, 0x42, 0x54, 0x58, 0x00, 0x42, 0x37, 0x3b, 0x4c, 0x13, 0x15, 0xd1, 0x50, 0x2e, 0x40, 0xcf, 0xce, 0x44, 0x24, 0x45, 0x1a, 0x55, 0x35, 0x27, 0x7f, 0xc7, 0x17, 0xb0, 0xda, 0x22, 0x00, 0x17, 0x79, 0x19, 0xe6, 0x12, 0x7f, 0x00, 0x36, 0xc2, 0x59, 0x46, 0x00, 0x52, 0x00, 0x26, 0x2e, 0x00, 0x5c, 0x39, 0x11, 0x00, 0x3f, 0x52, 0x41, 0xbc, 0x44, 0x38, 0x1b, 0x4d, 0x00, 0x00, 0xc8, 0x30, 0x5a, 0x4a, 0xe4, 0x00, 0x77, 0x00, 0x42, 0xe7, 0x1a, 0x16, 0x2f, 0x35, 0x4f, 0x00, 0x63, 0x3e, 0xcf, 0x9a, 0xdc, 0x00, 0x46, 0xd3, 0x18, 0x00, 0x00, 0x3c, 0x12, 0x75, 0x1e, 0x5d, 0x3c, 0x34, 0x2f, 0x9f, 0x3f, 0x00, 0x5f, 0xd4, 0x30, 0x69, 0x3c, 0x00, 0xee, 0x22, 0x5c, 0x7f, 0x36, 0x5a, 0x2b, 0xb4, 0x00, 0xe0, 0x7d, 0xb0, 0x55, 0x61, 0x5a, 0x00, 0x38, 0x3d, 0x36, 0xc4, 0x2c, 0x54, 0x27, 0x34, 0xe0, 0xb7, 0x56, 0x50, 0x12, 0x8d, 0x39, 0x25, 0xd6, 0x4b, 0x49, 0xda, 0x00, 0x53, 0x10, 0x00, 0xee, 0x92, 0x59, 0x4b, 0xa9, 0xd0, 0x32, 0xcf, 0x42, 0x12, 0x69, 0x13, 0x1f, 0x7f, 0x41, 0x15, 0xa5, 0xdc, 0x5d, 0x1a, 0xbb, 0x82, 0x27, 0xb9, 0x3d, 0x5f, 0x55, 0x00, 0x42, 0xe2, 0x1c, 0x00, 0x00, 0x00, 0x44, 0x31, 0x1a, 0xf3, 0x5e, 0x00, 0xcb, 0x23, 0x7f, 0x00, 0x3a, 0x11, 0x18, 0x00, 0x1e, 0xdb, 0x55, 0x3e, 0x25, 0xc3, 0x4a, 0xe7, 0xef, 0x16, 0x3c, 0x22, 0x2e, 0x00, 0x00, 0x13, 0x4e, 0x00, 0x3b, 0x00, 0x00, 0xe0, 0x6e, 0xe5, 0xe5, 0x00, 0x3a, 0x64, 0x26, 0x39, 0x1c, 0x10, 0x00, 0xe4, 0x3f, 0xc0, 0x25, 0x48, 0x64, 0x14, 0x1c, 0x1b, 0x35, 0x2f, 0x70, 0x78, 0x2a, 0xa1, 0x14, 0x1b, 0x4c, 0xd9, 0x39, 0x00, 0x2b, 0x00, 0xdf, 0x18, 0x22, 0x25, 0x7f, 0x71, 0x00, 0xc4, 0x31, 0x21, 0x6c, 0xe8, 0x00, 0x38, 0x1f, 0x00, 0x00, 0x17, 0xd2, 0x12, 0xdb, 0x1b, 0x2c, 0xe9, 0xf0, 0x00, 0x7f, 0xe4, 0x4e, 0x20, 0xeb, 0x00, 0x20, 0x4d, 0x0d, 0x60, 0x16, 0x40, 0x11, 0x00, 0xbe, 0x00, 0x5b, 0xc8, 0x2c, 0x55, 0x31, 0x2f, 0x35, 0x2c, 0xf3, 0x48, 0xcd, 0x50, 0x47, 0x00, 0xc7, 0xee, 0x1b, 0xde, 0x24, 0x49, 0x1f, 0x56, 0x23, 0x29, 0x25, 0x11, 0x48, 0xa2, 0xb5, 0x00, 0x1d, 0x11, 0x7f, 0xe5, 0x50, 0x7d, 0x31, 0x1f, 0x1e, 0xca, 0x51, 0x57, 0x1e, 0xa5, 0x00, 0x20, 0x2d, 0x1f, 0x4d, 0x00, 0x00, 0x55, 0x00, 0x00, 0xee, 0x00, 0x4d, 0x00, 0x67, 0xad, 0xe0, 0xce, 0x70, 0x45, 0x36, 0x00, 0x64, 0x6f, 0x2e, 0x42, 0x19, 0x19, 0xc2, 0x27, 0xcf, 0x00, 0x58, 0xee, 0xeb, 0xf1, 0x59, 0xd2, 0x3c, 0x4d, 0x0d, 0x6f, 0x00, 0x0d, 0xdd, 0x43, 0xd5, 0xd4, 0x40, 0x11, 0x27, 0x00, 0x7f, 0xd6, 0x61, 0x2b, 0x2f, 0x48, 0xec, 0x2f, 0x00, 0x66, 0xd8, 0x1d, 0x0d, 0x1d, 0xec, 0xe9, 0x64, 0xe7, 0x35, 0x2f, 0x11, 0x4e, 0x13, 0x45, 0x5c, 0xe5, 0x52, 0x00, 0xf4, 0x00, 0x2d, 0x0b, 0x7d, 0x29, 0xcb, 0xd7, 0x29, 0x00, 0xd2, 0x11, 0x5a, 0xca, 0x51, 0x0c, 0xf3, 0x0d, 0x00, 0x00, 0x60, 0xf5, 0xeb, 0xb5, 0x35, 0x0e, 0x18, 0x00, 0x56, 0x00, 0x1d, 0x19, 0x00, 0x23, 0x2b, 0xea, 0x7f, 0x17, 0xc1, 0xcd, 0x53, 0xf0, 0x00, 0xcf, 0x00, 0x00, 0x00, 0x00, 0x4a, 0x3e, 0x00, 0x53, 0xcb, 0x00, 0xa4, 0x65, 0x19, 0xd8, 0x2c, 0x23, 0x00, 0xb0, 0xc7, 0x00, 0x51, 0x52, 0x33, 0x62, 0xcb, 0x4e, 0x00, 0x00, 0xc2, 0xa6, 0x71, 0x4f, 0xcc, 0x14, 0x00, 0x00, 0x7f, 0x72, 0xd5, 0xef, 0xe9, 0x23, 0x00, 0x17, 0xdf, 0x9f, 0x00, 0x25, 0xd7, 0x14, 0x85, 0x0d, 0xd2, 0x37, 0x00, 0x29, 0x8c, 0x00, 0xdb, 0x00, 0x9b, 0xda, 0x50, 0x1f, 0xab, 0xc6, 0xc7, 0x16, 0xe5, 0x19, 0xdf, 0xe6, 0xa6, 0x2a, 0xb5, 0x30, 0xa6, 0x20, 0x57, 0x1d, 0xbd, 0xbd, 0x83, 0x00, 0x00, 0x2f, 0x00, 0x14, 0x83, 0x1b, 0xc2, 0x00, 0x81, 0x1b, 0x15, 0x49, 0x59, 0xbe, 0x47, 0x26, 0x11, 0x18, 0x1c, 0xd5, 0xe2, 0x10, 0x9a, 0x12, 0x33, 0xe2, 0x00, 0x50, 0x61, 0xea, 0x4a, 0x5c, 0x1e, 0x38, 0xe8, 0x10, 0x18, 0x34, 0xba, 0x00, 0x38, 0xba, 0x2b, 0x00, 0x3b, 0xc1, 0x7f, 0x69, 0x00, 0x48, 0x2d, 0x00, 0x18, 0x26, 0x9a, 0xce, 0x3e, 0x00, 0x2e, 0x00, 0x2a, 0x24, 0x4f, 0x3a, 0xbd, 0xb8, 0x2a, 0x00, 0xd6, 0x44, 0x23, 0x1c, 0xde, 0x4d, 0x00, 0x26, 0x1b, 0x16, 0x00, 0x00, 0xbf, 0xa4, 0x00, 0x4a, 0xc0, 0x29, 0x00, 0x6d, 0x18, 0x5d, 0x51, 0x11, 0x00, 0x39, 0x00, 0xdc, 0xd5, 0x00, 0x1b, 0x72, 0x00, 0x00, 0x38, 0x7f, 0xc6, 0x4d, 0x4d, 0x2b, 0x2f, 0x19, 0x74, 0x44, 0x00, 0x2d, 0x00, 0x1f, 0x59, 0x4d, 0xeb, 0xcf, 0x78, 0xd1, 0xd3, 0x3f, 0x53, 0x16, 0x44, 0xee, 0x13, 0x29, 0x2e, 0xe8, 0x30, 0x00, 0xc0, 0xdf, 0x2d, 0x00, 0xf0, 0x00, 0x7f, 0xcb, 0x69, 0x1d, 0x00, 0x28, 0x1d, 0xe7, 0x70, 0x00, 0x12, 0xee, 0x32, 0xcb, 0xda, 0x17, 0xd7, 0x1c, 0x19, 0x6f, 0x39, 0x4f, 0x19, 0x00, 0xc8, 0x5e, 0x60, 0xbc, 0x21, 0x25, 0x00, 0x36, 0xe2, 0x2e, 0x00, 0x00, 0x00, 0x47, 0x5a, 0x00, 0xd7, 0x4c, 0x00, 0xab, 0xc2, 0x52, 0x21, 0x7f, 0x00, 0x5e, 0xd4, 0x73, 0x00, 0x1f, 0x00, 0xcf, 0xd0, 0x2a, 0x71, 0x00, 0xc9, 0x38, 0x00, 0x62, 0xc6, 0xca, 0xb3, 0x47, 0xde, 0x00, 0xcc, 0x30, 0xb2, 0xf0, 0xcc, 0x15, 0xbe, 0xf4, 0x2e, 0x1c, 0x00, 0x00, 0xea, 0x7f, 0x13, 0xef, 0x0f, 0x2f, 0xb6, 0x1f, 0xaa, 0x00, 0x94, 0x00, 0x15, 0x33, 0xd7, 0xe2, 0xdb, 0x4f, 0x00, 0xe9, 0xed, 0x11, 0x9d, 0x2b, 0xa5, 0x00, 0xa3, 0x00, 0x0e, 0x40, 0xc2, 0x2a, 0xb2, 0xd7, 0x99, 0x24, 0x6d, 0x13, 0xdf, 0x39, 0x62, 0x00, 0xe5, 0x57, 0x31, 0x00, 0xa4, 0x43, 0x00, 0xe8, 0xe1, 0xdc, 0x72, 0x44, 0x8f, 0x5f, 0x00, 0x28, 0xec, 0x2e, 0x47, 0x81, 0xbb, 0x12, 0x89, 0xd7, 0xb7, 0xc5, 0x24, 0x00, 0xdd, 0x55, 0x55, 0x60, 0x00, 0xd0, 0x49, 0xdc, 0xd2, 0x17, 0xc4, 0x2d, 0x12, 0x3d, 0x3a, 0x37, 0x81, 0x50, 0x00, 0x46, 0x9f, 0x0f, 0x3a, 0x1f, 0xc0, 0xab, 0xb1, 0x13, 0x00, 0x19, 0x00, 0x5b, 0xcd, 0x52, 0xb5, 0x00, 0x00, 0x00, 0x50, 0xde, 0x00, 0xbb, 0xe8, 0x20, 0xc4, 0x00, 0x30, 0x38, 0x9f, 0x23, 0x95, 0x19, 0xcf, 0xb7, 0x3d, 0x00, 0x48, 0xdc, 0x66, 0x5f, 0x7f, 0xd8, 0x14, 0xba, 0x4e, 0x2b, 0x19, 0x00, 0x44, 0x19, 0xe7, 0x6d, 0x55, 0x3c, 0x1d, 0x37, 0x41, 0x46, 0x46, 0xa7, 0x3f, 0xc0, 0x27, 0x00, 0x72, 0x2a, 0xeb, 0x75, 0x00, 0x00, 0x25, 0x3a, 0x6d, 0x36, 0xc6, 0x00, 0x1a, 0x00, 0x6c, 0x00, 0x22, 0x56, 0xbc, 0x5e, 0x32, 0x57, 0x00, 0x3a, 0x4e, 0x21, 0x9d, 0xe2, 0x4d, 0xe2, 0x59, 0x00, 0x27, 0x00, 0x00, 0x7f, 0x00, 0x00, 0x1b, 0x68, 0x5b, 0x00, 0xa2, 0xd5, 0x36, 0xea, 0x40, 0x00, 0x4d, 0x00, 0x13, 0x41, 0x00, 0x00, 0x00, 0x1f, 0x2d, 0x27, 0x9b, 0xce, 0x69, 0xef, 0x59, 0x14, 0x4d, 0x54, 0x20, 0x6d, 0x00, 0x32, 0x43, 0x53, 0x31, 0x1c, 0xc8, 0x1e, 0x57, 0x23, 0x3d, 0xb3, 0x47, 0x68, 0x2a, 0x28, 0x1f, 0x29, 0x00, 0x39, 0x28, 0x66, 0xb8, 0x00, 0x7f, 0x1f, 0x61, 0xc8, 0x4e, 0x1a, 0x23, 0x2a, 0x00, 0x1a, 0x27, 0x34, 0x7f, 0x10, 0xd3, 0x00, 0x4f, 0x00, 0x00, 0x00, 0x50, 0x1a, 0x24, 0x12, 0x2c, 0x33, 0x00, 0x7f, 0x2b, 0x00, 0xcb, 0x00, 0x00, 0x00, 0xdd, 0x00, 0x1e, 0x2a, 0x28, 0x5d, 0x14, 0x00, 0x15, 0x4a, 0x49, 0x44, 0xcb, 0xb7, 0x00, 0x00, 0x1e, 0xd8, 0x2f, 0x1f, 0x40, 0x41, 0x1c, 0x2e, 0x27, 0x7b, 0x32, 0x4f, 0xdc, 0xde, 0x11, 0x00, 0x00, 0xd6, 0x00, 0xd8, 0xf0, 0x65, 0x4e, 0x00, 0x42, 0x42, 0x14, 0x5c, 0x00, 0xd4, 0x19, 0x00, 0x26, 0xd6, 0x26, 0xde, 0x00, 0x51, 0x0f, 0xc1, 0x3b, 0x7f, 0x6a, 0x10, 0xe9, 0xc6, 0x18, 0x33, 0xe0, 0xd3, 0x28, 0xdc, 0x3a, 0x24, 0x00, 0xb4, 0x40, 0x30, 0x11, 0x5e, 0x25, 0x19, 0x33, 0x1c, 0xc2, 0xcf, 0x10, 0xe4, 0x00, 0x3f, 0x71, 0x44, 0x40, 0xe9, 0x1f, 0x00, 0x3f, 0x00, 0x2e, 0x00, 0x52, 0x48, 0x10, 0x33, 0xee, 0x00, 0x52, 0x25, 0x1e, 0xe2, 0x10, 0xdd, 0x00, 0x19, 0x7f, 0xd6, 0x5f, 0x1a, 0x59, 0x49, 0xc8, 0x31, 0x3a, 0x00, 0x47, 0x10, 0xe6, 0xce, 0x46, 0xf0, 0x29, 0xeb, 0x51, 0x26, 0x57, 0x4c, 0x22, 0x00, 0x00, 0x00, 0x14, 0x68, 0x36, 0x16, 0xef, 0xf5, 0x1c, 0xf2, 0x00, 0xd8, 0xe7, 0xea, 0x00, 0x47, 0x2c, 0xec, 0x00, 0x78, 0x31, 0x20, 0x00, 0x10, 0x27, 0x00, 0x00, 0xd8, 0xd3, 0xce, 0x32, 0x59, 0xe4, 0xc6, 0x1d, 0x7f, 0x2b, 0x00, 0xb9, 0xf6, 0xf1, 0x1e, 0xce, 0xd2, 0x00, 0xda, 0x0d, 0x3c, 0xb6, 0xf8, 0xff, 0xff, 0x04, 0x00, 0x00, 0x00, 0x80, 0x00, 0x00, 0x00, 0x15, 0x06, 0x00, 0x00, 0x29, 0x05, 0x00, 0x00, 0x00, 0x00, 0x00, 0x00, 0xcc, 0x0f, 0x00, 0x00, 0xc5, 0x10, 0x00, 0x00, 0x67, 0x09, 0x00, 0x00, 0x17, 0x0d, 0x00, 0x00, 0x00, 0x00, 0x00, 0x00, 0x00, 0x00, 0x00, 0x00, 0x00, 0x00, 0x00, 0x00, 0x00, 0x00, 0x00, 0x00, 0x00, 0x00, 0x00, 0x00, 0x81, 0x04, 0x00, 0x00, 0x7f, 0x0c, 0x00, 0x00, 0x00, 0x00, 0x00, 0x00, 0x00, 0x00, 0x00, 0x00, 0xf2, 0x0f, 0x00, 0x00, 0xd9, 0x07, 0x00, 0x00, 0x00, 0x00, 0x00, 0x00, 0x38, 0x0f, 0x00, 0x00, 0x7d, 0x07, 0x00, 0x00, 0x62, 0x07, 0x00, 0x00, 0xa6, 0x07, 0x00, 0x00, 0x5b, 0x0d, 0x00, 0x00, 0xd5, 0x10, 0x00, 0x00, 0x00, 0x00, 0x00, 0x00, 0x00, 0x00, 0x00, 0x00, 0x00, 0x00, 0x00, 0x00, 0x00, 0x00, 0x00, 0x00, 0x28, 0x05, 0x00, 0x00, 0x00, 0x00, 0x00, 0x00, 0x00, 0x00, 0x00, 0x00, 0x42, 0xf9, 0xff, 0xff, 0x04, 0x00, 0x00, 0x00, 0x00, 0x04, 0x00, 0x00, 0x4b, 0x6d, 0x00, 0x2f, 0x20, 0xa6, 0x37, 0x57, 0x5f, 0x9c, 0x6f, 0x19, 0x6b, 0x00, 0x7d, 0x55, 0x18, 0xdf, 0x1d, 0x2f, 0xf0, 0x7f, 0x8b, 0x00, 0xda, 0x94, 0x11, 0x18, 0x99, 0x5c, 0xe3, 0xf0, 0x5e, 0x17, 0x6b, 0xca, 0x11, 0x00, 0x23, 0x26, 0x30, 0x3a, 0x57, 0x6a, 0x4c, 0xce, 0x23, 0x1a, 0xc3, 0xce, 0x39, 0xeb, 0x00, 0x12, 0x00, 0xed, 0xa9, 0x51, 0x7f, 0xf3, 0x46, 0x6c, 0x10, 0x1a, 0x0d, 0x99, 0xb0, 0x56, 0x5f, 0x3a, 0xdd, 0x1d, 0xc4, 0x16, 0xc4, 0xe1, 0x00, 0xe5, 0x81, 0xc7, 0x60, 0x73, 0x34, 0x3c, 0x00, 0x00, 0x73, 0x55, 0x15, 0xaa, 0xd1, 0xe9, 0x00, 0x00, 0xf5, 0xf0, 0x5c, 0x21, 0x00, 0x00, 0xe2, 0x5d, 0x7c, 0x00, 0x28, 0xc8, 0x00, 0x52, 0x9d, 0x7f, 0xdf, 0x00, 0x00, 0x31, 0x5e, 0x73, 0x29, 0x74, 0x26, 0x14, 0x51, 0xed, 0x00, 0x00, 0x20, 0x5f, 0x51, 0xcf, 0x22, 0xd8, 0x0e, 0xae, 0x00, 0xd8, 0x32, 0x74, 0xe1, 0x4c, 0x00, 0x4d, 0x56, 0x36, 0x52, 0x21, 0x58, 0xcd, 0x1d, 0xae, 0x74, 0x63, 0x37, 0xbb, 0x37, 0x71, 0x00, 0x4d, 0x78, 0x7f, 0x00, 0x56, 0x6b, 0xdb, 0x3c, 0x00, 0x00, 0x13, 0x00, 0x00, 0x7f, 0x1b, 0x1e, 0x2f, 0x34, 0x16, 0x74, 0xcc, 0xb6, 0x0f, 0x00, 0x39, 0x37, 0x36, 0x2b, 0xe3, 0xc0, 0xf3, 0x5b, 0x00, 0x00, 0x00, 0x65, 0x50, 0x62, 0x00, 0x2e, 0x00, 0xcf, 0x00, 0x00, 0x17, 0x29, 0xdc, 0x24, 0x26, 0x7f, 0x3a, 0x44, 0x20, 0xe0, 0xa7, 0x58, 0x2f, 0x71, 0x24, 0x00, 0xe9, 0x00, 0x51, 0x1b, 0xf0, 0x00, 0x15, 0x7b, 0xc8, 0x12, 0x78, 0x75, 0xca, 0x2b, 0xd7, 0x00, 0x00, 0x7f, 0xec, 0x56, 0x4d, 0xdf, 0x00, 0xcc, 0x17, 0x1c, 0xdc, 0x68, 0x00, 0x47, 0xc4, 0x0e, 0x1f, 0xec, 0x00, 0x65, 0x00, 0x00, 0x00, 0x26, 0x18, 0x2f, 0x7d, 0xc6, 0xc8, 0x00, 0x00, 0x1b, 0xca, 0x5c, 0xd9, 0x00, 0xc8, 0x3a, 0x81, 0x00, 0xbc, 0x1a, 0xb3, 0x00, 0x59, 0x88, 0xd0, 0x00, 0xb7, 0xbb, 0x00, 0xac, 0xc9, 0x1d, 0x25, 0x00, 0xde, 0xe0, 0x2f, 0x30, 0x00, 0xd9, 0xe2, 0xc5, 0x56, 0x40, 0x3e, 0x00, 0x00, 0x00, 0x17, 0x7f, 0xf3, 0xec, 0xc7, 0xde, 0x39, 0xd1, 0x00, 0x00, 0x47, 0xf0, 0xdd, 0x10, 0x22, 0x00, 0x00, 0x25, 0x00, 0x47, 0x30, 0x00, 0x20, 0x4e, 0x00, 0x59, 0x4c, 0x7a, 0xeb, 0x22, 0x37, 0x67, 0x30, 0x00, 0xd6, 0x29, 0x61, 0xd6, 0x74, 0x00, 0x00, 0xd7, 0x75, 0x3e, 0x2e, 0x37, 0x70, 0xcc, 0xeb, 0x25, 0x7f, 0x9c, 0x37, 0x5b, 0x90, 0xc1, 0x81, 0x24, 0x3f, 0x2a, 0xc8, 0x4c, 0x3a, 0xd6, 0x23, 0xe6, 0x13, 0xc6, 0x13, 0x25, 0x00, 0xf1, 0x3f, 0xa1, 0xaa, 0xc6, 0x27, 0xec, 0xdb, 0x00, 0xf2, 0xe5, 0x58, 0x0f, 0xea, 0x1d, 0xb6, 0x32, 0xc0, 0xe1, 0x3d, 0xec, 0x31, 0x14, 0x00, 0xee, 0xe9, 0xd8, 0xd4, 0x3d, 0x31, 0x2f, 0x37, 0x1b, 0x69, 0x00, 0xc5, 0x26, 0x18, 0x48, 0x58, 0x69, 0x27, 0xb2, 0x7f, 0x44, 0xe1, 0x48, 0x00, 0xe3, 0x3e, 0xe7, 0x7e, 0x3f, 0xad, 0xaf, 0x00, 0x00, 0x74, 0x7f, 0xa5, 0x45, 0x00, 0xd1, 0x00, 0xa3, 0xb6, 0x8d, 0x18, 0xdb, 0x61, 0xe8, 0xd7, 0x5e, 0x1f, 0x4b, 0xcb, 0x00, 0x2f, 0x00, 0x3b, 0x00, 0x54, 0x21, 0xd5, 0x30, 0x9b, 0x00, 0x31, 0xde, 0x62, 0x10, 0xc0, 0x00, 0xbd, 0x1d, 0x1f, 0xe3, 0xbd, 0x00, 0x39, 0x14, 0x00, 0x00, 0xde, 0x81, 0x92, 0x28, 0xa4, 0x67, 0xe2, 0x00, 0x0e, 0x39, 0x20, 0xd0, 0xc3, 0x7f, 0x4b, 0x0e, 0x24, 0x20, 0x4d, 0x2b, 0x16, 0x11, 0xf0, 0xbb, 0x40, 0xf1, 0xe0, 0x33, 0xbc, 0x00, 0x59, 0x2a, 0x00, 0x33, 0x9c, 0x2e, 0xeb, 0x36, 0x3f, 0x36, 0x21, 0x00, 0xd4, 0xd0, 0xd8, 0xc3, 0x00, 0xe3, 0x00, 0x3e, 0x2b, 0x55, 0x33, 0x14, 0xa3, 0xe5, 0x22, 0xea, 0x27, 0x81, 0xd4, 0x34, 0x00, 0x00, 0x30, 0xd2, 0x25, 0xcb, 0x0c, 0xd5, 0xc4, 0xab, 0x6a, 0x00, 0x69, 0x3f, 0xe9, 0xbb, 0x9d, 0xd9, 0xcb, 0x00, 0xed, 0x8d, 0x00, 0x42, 0x7f, 0x30, 0x58, 0xa2, 0xd2, 0x62, 0x0e, 0x75, 0x9f, 0x00, 0xb0, 0xd2, 0x00, 0xa7, 0xe7, 0x29, 0xac, 0xe7, 0x00, 0x94, 0x5d, 0xa6, 0x63, 0xb5, 0xdb, 0x00, 0xac, 0x6a, 0xca, 0xd2, 0xbb, 0x81, 0x2e, 0x69, 0xd7, 0xa9, 0xde, 0xc7, 0xe0, 0xce, 0x8e, 0x4f, 0xe9, 0x00, 0xde, 0x00, 0xc0, 0xd7, 0x49, 0x31, 0x61, 0x5c, 0xeb, 0x56, 0xbf, 0xe5, 0x28, 0xba, 0xf0, 0x00, 0x7f, 0x36, 0xc0, 0x26, 0xc1, 0xb1, 0x0e, 0xbc, 0x1e, 0xc1, 0x6e, 0x30, 0x1b, 0x42, 0x00, 0xdd, 0x9d, 0x00, 0x12, 0x2a, 0xeb, 0x48, 0x9d, 0xc8, 0x40, 0x2c, 0x00, 0x35, 0x7d, 0xde, 0x63, 0x26, 0xd6, 0x96, 0xb3, 0x39, 0x31, 0x36, 0x00, 0x00, 0x00, 0x4d, 0xa7, 0x37, 0x7f, 0x00, 0x4b, 0x6d, 0x4d, 0xda, 0x7d, 0x51, 0x89, 0x1f, 0x00, 0x00, 0x00, 0xe7, 0x88, 0xbd, 0x00, 0x61, 0x00, 0x63, 0xdd, 0xc3, 0xa3, 0xba, 0x81, 0xe6, 0xe1, 0xc0, 0xde, 0x00, 0xdc, 0xd0, 0x00, 0x66, 0xd3, 0x40, 0x00, 0xbe, 0xbf, 0x37, 0x70, 0xe1, 0x00, 0xdb, 0x5b, 0x00, 0xe3, 0x7e, 0x38, 0x00, 0x71, 0x1d, 0x25, 0x6a, 0x00, 0xc7, 0xf3, 0x2f, 0x6e, 0x00, 0x22, 0xb4, 0xcb, 0x00, 0x00, 0x21, 0xd7, 0xf1, 0xe5, 0x7f, 0xf3, 0x3a, 0xc8, 0xcb, 0x60, 0xda, 0x42, 0x14, 0xe9, 0xa9, 0xa6, 0xa0, 0x00, 0x00, 0x40, 0x58, 0x81, 0xf2, 0x00, 0xe1, 0x51, 0xbc, 0x47, 0x00, 0x4a, 0xbc, 0x1e, 0x46, 0xcf, 0x00, 0xd2, 0x00, 0xb4, 0x00, 0x55, 0xd3, 0xef, 0xb4, 0x96, 0x00, 0x1b, 0x41, 0x00, 0x4f, 0x0f, 0x00, 0xd6, 0x49, 0xea, 0xe9, 0xd8, 0xc0, 0x27, 0x23, 0x00, 0x81, 0x52, 0x34, 0x12, 0x00, 0x2f, 0x4b, 0x32, 0x10, 0xe4, 0xa1, 0xba, 0x9c, 0x11, 0x00, 0x55, 0x5b, 0x2b, 0x86, 0x81, 0x23, 0x93, 0x88, 0x34, 0x16, 0xb3, 0x33, 0x24, 0xdc, 0x35, 0xdf, 0x17, 0x3e, 0x25, 0x54, 0x00, 0xdf, 0xa2, 0xf2, 0xb9, 0xa2, 0xd4, 0x53, 0x00, 0x2b, 0x17, 0xf1, 0xed, 0xd9, 0x2d, 0x26, 0x3e, 0x0f, 0x00, 0x2b, 0xde, 0x4d, 0x00, 0x1d, 0xe7, 0x25, 0xd2, 0x33, 0xd8, 0x81, 0x19, 0xb8, 0x4b, 0x2c, 0x53, 0xd1, 0xd2, 0x4b, 0x00, 0x6d, 0x16, 0x7f, 0xdd, 0x0d, 0x17, 0x3f, 0x00, 0x6d, 0x5f, 0x2f, 0x47, 0x19, 0xbf, 0x54, 0x15, 0xee, 0xed, 0x1b, 0x00, 0x00, 0xba, 0x9c, 0xaf, 0xd2, 0x00, 0x44, 0x5e, 0x7f, 0xed, 0xdc, 0x38, 0x90, 0x37, 0x96, 0xc2, 0x81, 0x40, 0x98, 0x00, 0xe4, 0x53, 0xe4, 0xac, 0x55, 0xd7, 0xbf, 0x72, 0xe7, 0x61, 0x1b, 0x00, 0xe6, 0xcf, 0x00, 0x6f, 0x00, 0xe2, 0x1b, 0xa4, 0x57, 0x23, 0x24, 0xea, 0xb0, 0x7d, 0xd2, 0x00, 0xb8, 0x7a, 0x62, 0xb6, 0xb6, 0x91, 0x00, 0xc1, 0x18, 0x00, 0x00, 0xc2, 0x87, 0x29, 0x55, 0x00, 0xaf, 0x65, 0xe3, 0x81, 0x8b, 0xa2, 0xe2, 0xa1, 0x8e, 0x9c, 0x8d, 0x93, 0x8e, 0x11, 0x50, 0x00, 0x48, 0xb0, 0x37, 0x4e, 0xa0, 0x44, 0x42, 0xcf, 0x81, 0x31, 0x17, 0x7a, 0x2e, 0xc8, 0x2f, 0xaa, 0x4e, 0xf4, 0xad, 0xcf, 0xf0, 0x18, 0x28, 0x33, 0xc9, 0x56, 0x3e, 0xe1, 0x4e, 0x2a, 0x32, 0x1c, 0x00, 0xcd, 0x10, 0xd5, 0x25, 0x00, 0x3a, 0x5d, 0x76, 0x40, 0x15, 0x50, 0xea, 0xaf, 0x00, 0x2d, 0x0e, 0x00, 0x0b, 0x00, 0xbb, 0x00, 0x7f, 0x1d, 0x54, 0x00, 0x7e, 0x28, 0x4e, 0xfd, 0xff, 0xff, 0x04, 0x00, 0x00, 0x00, 0x80, 0x00, 0x00, 0x00, 0xe7, 0x03, 0x00, 0x00, 0x00, 0x00, 0x00, 0x00, 0x7c, 0x06, 0x00, 0x00, 0xac, 0x05, 0x00, 0x00, 0x00, 0x00, 0x00, 0x00, 0x00, 0x00, 0x00, 0x00, 0x16, 0x04, 0x00, 0x00, 0x00, 0x00, 0x00, 0x00, 0x00, 0x00, 0x00, 0x00, 0x00, 0x00, 0x00, 0x00, 0x17, 0x05, 0x00, 0x00, 0x00, 0x00, 0x00, 0x00, 0xdb, 0x03, 0x00, 0x00, 0x00, 0x00, 0x00, 0x00, 0x00, 0x00, 0x00, 0x00, 0x00, 0x00, 0x00, 0x00, 0x00, 0x00, 0x00, 0x00, 0xf2, 0x06, 0x00, 0x00, 0x00, 0x00, 0x00, 0x00, 0xbd, 0x04, 0x00, 0x00, 0x00, 0x00, 0x00, 0x00, 0x00, 0x00, 0x00, 0x00, 0xb1, 0x04, 0x00, 0x00, 0x00, 0x00, 0x00, 0x00, 0x00, 0x00, 0x00, 0x00, 0x78, 0x04, 0x00, 0x00, 0x00, 0x00, 0x00, 0x00, 0x00, 0x00, 0x00, 0x00, 0x00, 0x00, 0x00, 0x00, 0x00, 0x00, 0x00, 0x00, 0x00, 0x00, 0x00, 0x00, 0x00, 0x00, 0x00, 0x00, 0xda, 0xfd, 0xff, 0xff, 0x04, 0x00, 0x00, 0x00, 0xe0, 0x00, 0x00, 0x00, 0xae, 0x00, 0x47, 0xdb, 0x93, 0xa7, 0x82, 0x81, 0x2a, 0x00, 0xdd, 0x29, 0x94, 0x1f, 0x4f, 0x2e, 0xc8, 0x30, 0x00, 0x4d, 0xab, 0xe6, 0xe2, 0x60, 0x2a, 0x63, 0x00, 0x00, 0xe1, 0x1f, 0x94, 0xaa, 0x00, 0x4b, 0x00, 0x44, 0x5d, 0xf3, 0xd8, 0x2f, 0x0b, 0xc0, 0x47, 0x17, 0x0e, 0xd4, 0x81, 0x81, 0xaa, 0xe2, 0x4b, 0xd3, 0xd1, 0x4a, 0x91, 0xa5, 0xea, 0x8d, 0xa4, 0x00, 0x00, 0xe9, 0x30, 0xcb, 0x49, 0x3f, 0x84, 0xe8, 0x49, 0x3e, 0x2d, 0xb4, 0xe9, 0x17, 0x00, 0x93, 0x00, 0x2d, 0x00, 0x1f, 0x3e, 0x81, 0xc1, 0x22, 0xb9, 0x00, 0x42, 0x23, 0x60, 0x95, 0x4b, 0x25, 0xf2, 0x13, 0xf0, 0x14, 0x00, 0x21, 0x00, 0x30, 0x1e, 0x4b, 0x00, 0x29, 0x00, 0x81, 0x23, 0xc2, 0xf0, 0xc4, 0x17, 0x3e, 0xb9, 0xea, 0xe4, 0xdd, 0x20, 0xd2, 0x44, 0xd7, 0xc7, 0x99, 0x98, 0x09, 0x20, 0x39, 0xac, 0x39, 0x0b, 0xaa, 0x4c, 0x1a, 0x2b, 0xdb, 0xa0, 0xb9, 0xf4, 0xb9, 0x0b, 0xf8, 0x27, 0xd8, 0xf2, 0xae, 0xf5, 0x0e, 0x14, 0x00, 0x00, 0xd8, 0xa7, 0xf4, 0x0c, 0x00, 0x12, 0xd2, 0x00, 0xe9, 0xca, 0x81, 0x54, 0x8c, 0x0b, 0x2e, 0xef, 0xba, 0x29, 0x13, 0x27, 0x21, 0xe3, 0x00, 0x9a, 0xc9, 0x47, 0x9a, 0xde, 0x00, 0x00, 0x2d, 0x9e, 0x31, 0x15, 0xe7, 0x81, 0x21, 0xe1, 0xc8, 0x27, 0xe6, 0x51, 0xd8, 0xb3, 0x52, 0x00, 0xa6, 0x57, 0x0a, 0xf6, 0x23, 0x0a, 0xa3, 0x9a, 0x28, 0x28, 0x9e, 0xed, 0xe7, 0xd1, 0xbc, 0xc6, 0x81, 0x5b, 0xca, 0x00, 0xe3, 0xc0, 0xe8, 0x41, 0x49, 0xe7, 0xc0, 0x33, 0x20, 0xc6, 0xfe, 0xff, 0xff, 0x04, 0x00, 0x00, 0x00, 0x1c, 0x00, 0x00, 0x00, 0x00, 0x00, 0x00, 0x00, 0x50, 0x01, 0x00, 0x00, 0xff, 0xfe, 0xff, 0xff, 0x00, 0x00, 0x00, 0x00, 0x00, 0x00, 0x00, 0x00, 0xfa, 0x00, 0x00, 0x00, 0x86, 0xfe, 0xff, 0xff, 0xee, 0xfe, 0xff, 0xff, 0x04, 0x00, 0x00, 0x00, 0x0c, 0x00, 0x00, 0x00, 0xff, 0xff, 0xff, 0xff, 0x19, 0x00, 0x00, 0x00, 0x20, 0x00, 0x00, 0x00, 0x06, 0xff, 0xff, 0xff, 0x04, 0x00, 0x00, 0x00, 0x0c, 0x00, 0x00, 0x00, 0xff, 0xff, 0xff, 0xff, 0x19, 0x00, 0x00, 0x00, 0x10, 0x00, 0x00, 0x00, 0x1e, 0xff, 0xff, 0xff, 0x04, 0x00, 0x00, 0x00, 0x04, 0x00, 0x00, 0x00, 0x01, 0x00, 0x00, 0x00, 0x2e, 0xff, 0xff, 0xff, 0x04, 0x00, 0x00, 0x00, 0x0c, 0x00, 0x00, 0x00, 0xff, 0xff, 0xff, 0xff, 0x32, 0x00, 0x00, 0x00, 0x10, 0x00, 0x00, 0x00, 0x46, 0xff, 0xff, 0xff, 0x04, 0x00, 0x00, 0x00, 0x04, 0x00, 0x00, 0x00, 0xfd, 0xff, 0xff, 0xff, 0x2c, 0xe7, 0xff, 0xff, 0x30, 0xe7, 0xff, 0xff, 0x0f, 0x00, 0x00, 0x00, 0x4d, 0x4c, 0x49, 0x52, 0x20, 0x43, 0x6f, 0x6e, 0x76, 0x65, 0x72, 0x74, 0x65, 0x64, 0x2e, 0x00, 0x01, 0x00, 0x00, 0x00, 0x14, 0x00, 0x00, 0x00, 0x00, 0x00, 0x0e, 0x00, 0x18, 0x00, 0x14, 0x00, 0x10, 0x00, 0x0c, 0x00, 0x08, 0x00, 0x04, 0x00, 0x0e, 0x00, 0x00, 0x00, 0x14, 0x00, 0x00, 0x00, 0x1c, 0x00, 0x00, 0x00, 0x24, 0x03, 0x00, 0x00, 0x28, 0x03, 0x00, 0x00, 0x2c, 0x03, 0x00, 0x00, 0x04, 0x00, 0x00, 0x00, 0x6d, 0x61, 0x69, 0x6e, 0x00, 0x00, 0x00, 0x00, 0x0d, 0x00, 0x00, 0x00, 0xdc, 0x02, 0x00, 0x00, 0x7c, 0x02, 0x00, 0x00, 0x44, 0x02, 0x00, 0x00, 0x08, 0x02, 0x00, 0x00, 0xb4, 0x01, 0x00, 0x00, 0x8c, 0x01, 0x00, 0x00, 0x5c, 0x01, 0x00, 0x00, 0x18, 0x01, 0x00, 0x00, 0xf0, 0x00, 0x00, 0x00, 0xbc, 0x00, 0x00, 0x00, 0x78, 0x00, 0x00, 0x00, 0x40, 0x00, 0x00, 0x00, 0x04, 0x00, 0x00, 0x00, 0xc2, 0xfd, 0xff, 0xff, 0x1c, 0x00, 0x00, 0x00, 0x00, 0x00, 0x00, 0x09, 0x1c, 0x00, 0x00, 0x00, 0x20, 0x00, 0x00, 0x00, 0x06, 0x00, 0x00, 0x00, 0x00, 0x00, 0x06, 0x00, 0x08, 0x00, 0x04, 0x00, 0x06, 0x00, 0x00, 0x00, 0x00, 0x00, 0x80, 0x3f, 0x01, 0x00, 0x00, 0x00, 0x1a, 0x00, 0x00, 0x00, 0x01, 0x00, 0x00, 0x00, 0x19, 0x00, 0x00, 0x00, 0xfa, 0xfd, 0xff, 0xff, 0x14, 0x00, 0x00, 0x00, 0x00, 0x00, 0x00, 0x08, 0x10, 0x00, 0x00, 0x00, 0x14, 0x00, 0x00, 0x00, 0x05, 0x00, 0x00, 0x00, 0x0c, 0xe8, 0xff, 0xff, 0x01, 0x00, 0x00, 0x00, 0x19, 0x00, 0x00, 0x00, 0x03, 0x00, 0x00, 0x00, 0x18, 0x00, 0x00, 0x00, 0x07, 0x00, 0x00, 0x00, 0x06, 0x00, 0x00, 0x00, 0x2e, 0xfe, 0xff, 0xff, 0x1c, 0x00, 0x00, 0x00, 0x00, 0x00, 0x00, 0x08, 0x1c, 0x00, 0x00, 0x00, 0x20, 0x00, 0x00, 0x00, 0x05, 0x00, 0x00, 0x00, 0x00, 0x00, 0x06, 0x00, 0x08, 0x00, 0x07, 0x00, 0x06, 0x00, 0x00, 0x00, 0x00, 0x00, 0x00, 0x01, 0x01, 0x00, 0x00, 0x00, 0x18, 0x00, 0x00, 0x00, 0x03, 0x00, 0x00, 0x00, 0x17, 0x00, 0x00, 0x00, 0x09, 0x00, 0x00, 0x00, 0x08, 0x00, 0x00, 0x00, 0x6e, 0xfe, 0xff, 0xff, 0x14, 0x00, 0x00, 0x00, 0x00, 0x00, 0x00, 0x1b, 0x10, 0x00, 0x00, 0x00, 0x14, 0x00, 0x00, 0x00, 0x04, 0x00, 0x00, 0x00, 0x80, 0xe8, 0xff, 0xff, 0x01, 0x00, 0x00, 0x00, 0x17, 0x00, 0x00, 0x00, 0x02, 0x00, 0x00, 0x00, 0x16, 0x00, 0x00, 0x00, 0x03, 0x00, 0x00, 0x00, 0xce, 0xfe, 0xff, 0xff, 0x0c, 0x00, 0x00, 0x00, 0x10, 0x00, 0x00, 0x00, 0x02, 0x00, 0x00, 0x00, 0x01, 0x00, 0x00, 0x00, 0x16, 0x00, 0x00, 0x00, 0x02, 0x00, 0x00, 0x00, 0x15, 0x00, 0x00, 0x00, 0x05, 0x00, 0x00, 0x00, 0xc2, 0xfe, 0xff, 0xff, 0x14, 0x00, 0x00, 0x00, 0x00, 0x00, 0x00, 0x01, 0x1c, 0x00, 0x00, 0x00, 0x20, 0x00, 0x00, 0x00, 0x01, 0x00, 0x00, 0x00, 0xb4, 0xfe, 0xff, 0xff, 0x00, 0x00, 0x00, 0x01, 0x01, 0x00, 0x00, 0x00, 0x01, 0x00, 0x00, 0x00, 0x01, 0x00, 0x00, 0x00, 0x15, 0x00, 0x00, 0x00, 0x03, 0x00, 0x00, 0x00, 0x14, 0x00, 0x00, 0x00, 0x0b, 0x00, 0x00, 0x00, 0x0a, 0x00, 0x00, 0x00, 0xa6, 0xfe, 0xff, 0xff, 0x10, 0x00, 0x00, 0x00, 0x00, 0x00, 0x00, 0x34, 0x0c, 0x00, 0x00, 0x00, 0x10, 0x00, 0x00, 0x00, 0x10, 0xe9, 0xff, 0xff, 0x01, 0x00, 0x00, 0x00, 0x14, 0x00, 0x00, 0x00, 0x02, 0x00, 0x00, 0x00, 0x13, 0x00, 0x00, 0x00, 0x01, 0x00, 0x00, 0x00, 0x5e, 0xff, 0xff, 0xff, 0x0c, 0x00, 0x00, 0x00, 0x10, 0x00, 0x00, 0x00, 0x02, 0x00, 0x00, 0x00, 0x01, 0x00, 0x00, 0x00, 0x13, 0x00, 0x00, 0x00, 0x02, 0x00, 0x00, 0x00, 0x12, 0x00, 0x00, 0x00, 0x04, 0x00, 0x00, 0x00, 0x52, 0xff, 0xff, 0xff, 0x24, 0x00, 0x00, 0x00, 0x00, 0x00, 0x00, 0x05, 0x34, 0x00, 0x00, 0x00, 0x38, 0x00, 0x00, 0x00, 0x03, 0x00, 0x00, 0x00, 0x00, 0x00, 0x0e, 0x00, 0x18, 0x00, 0x17, 0x00, 0x10, 0x00, 0x0c, 0x00, 0x08, 0x00, 0x04, 0x00, 0x0e, 0x00, 0x00, 0x00, 0x01, 0x00, 0x00, 0x00, 0x02, 0x00, 0x00, 0x00, 0x01, 0x00, 0x00, 0x00, 0x02, 0x00, 0x00, 0x00, 0x00, 0x00, 0x00, 0x01, 0x01, 0x00, 0x00, 0x00, 0x12, 0x00, 0x00, 0x00, 0x01, 0x00, 0x00, 0x00, 0x11, 0x00, 0x00, 0x00, 0x46, 0xff, 0xff, 0xff, 0x10, 0x00, 0x00, 0x00, 0x00, 0x00, 0x00, 0x34, 0x0c, 0x00, 0x00, 0x00, 0x10, 0x00, 0x00, 0x00, 0xb0, 0xe9, 0xff, 0xff, 0x01, 0x00, 0x00, 0x00, 0x11, 0x00, 0x00, 0x00, 0x02, 0x00, 0x00, 0x00, 0x10, 0x00, 0x00, 0x00, 0x03, 0x00, 0x00, 0x00, 0x00, 0x00, 0x0a, 0x00, 0x10, 0x00, 0x0c, 0x00, 0x08, 0x00, 0x04, 0x00, 0x0a, 0x00, 0x00, 0x00, 0x0c, 0x00, 0x00, 0x00, 0x10, 0x00, 0x00, 0x00, 0x02, 0x00, 0x00, 0x00, 0x01, 0x00, 0x00, 0x00, 0x10, 0x00, 0x00, 0x00, 0x02, 0x00, 0x00, 0x00, 0x0f, 0x00, 0x00, 0x00, 0x02, 0x00, 0x00, 0x00, 0x00, 0x00, 0x0e, 0x00, 0x18, 0x00, 0x14, 0x00, 0x10, 0x00, 0x0c, 0x00, 0x0b, 0x00, 0x04, 0x00, 0x0e, 0x00, 0x00, 0x00, 0x20, 0x00, 0x00, 0x00, 0x00, 0x00, 0x00, 0x01, 0x28, 0x00, 0x00, 0x00, 0x2c, 0x00, 0x00, 0x00, 0x01, 0x00, 0x00, 0x00, 0x0c, 0x00, 0x10, 0x00, 0x00, 0x00, 0x0c, 0x00, 0x08, 0x00, 0x07, 0x00, 0x0c, 0x00, 0x00, 0x00, 0x00, 0x00, 0x00, 0x01, 0x01, 0x00, 0x00, 0x00, 0x01, 0x00, 0x00, 0x00, 0x01, 0x00, 0x00, 0x00, 0x0f, 0x00, 0x00, 0x00, 0x03, 0x00, 0x00, 0x00, 0x0e, 0x00, 0x00, 0x00, 0x0d, 0x00, 0x00, 0x00, 0x0c, 0x00, 0x00, 0x00, 0x00, 0x00, 0x0e, 0x00, 0x14, 0x00, 0x00, 0x00, 0x10, 0x00, 0x0c, 0x00, 0x0b, 0x00, 0x04, 0x00, 0x0e, 0x00, 0x00, 0x00, 0x10, 0x00, 0x00, 0x00, 0x00, 0x00, 0x00, 0x34, 0x0c, 0x00, 0x00, 0x00, 0x10, 0x00, 0x00, 0x00, 0x78, 0xea, 0xff, 0xff, 0x01, 0x00, 0x00, 0x00, 0x0e, 0x00, 0x00, 0x00, 0x02, 0x00, 0x00, 0x00, 0x00, 0x00, 0x00, 0x00, 0x01, 0x00, 0x00, 0x00, 0x01, 0x00, 0x00, 0x00, 0x1a, 0x00, 0x00, 0x00, 0x01, 0x00, 0x00, 0x00, 0x00, 0x00, 0x00, 0x00, 0x1b, 0x00, 0x00, 0x00, 0x94, 0x15, 0x00, 0x00, 0x3c, 0x15, 0x00, 0x00, 0xe4, 0x14, 0x00, 0x00, 0xa8, 0x14, 0x00, 0x00, 0x68, 0x14, 0x00, 0x00, 0x28, 0x14, 0x00, 0x00, 0x7c, 0x13, 0x00, 0x00, 0xd0, 0x12, 0x00, 0x00, 0xfc, 0x10, 0x00, 0x00, 0x20, 0x0f, 0x00, 0x00, 0x4c, 0x0d, 0x00, 0x00, 0x68, 0x0b, 0x00, 0x00, 0x54, 0x0a, 0x00, 0x00, 0x30, 0x09, 0x00, 0x00, 0x8c, 0x08, 0x00, 0x00, 0x90, 0x07, 0x00, 0x00, 0xc0, 0x06, 0x00, 0x00, 0x18, 0x06, 0x00, 0x00, 0x7c, 0x05, 0x00, 0x00, 0xe4, 0x04, 0x00, 0x00, 0x44, 0x04, 0x00, 0x00, 0x40, 0x03, 0x00, 0x00, 0x68, 0x02, 0x00, 0x00, 0xd8, 0x01, 0x00, 0x00, 0x24, 0x01, 0x00, 0x00, 0x80, 0x00, 0x00, 0x00, 0x04, 0x00, 0x00, 0x00, 0xee, 0xea, 0xff, 0xff, 0x00, 0x00, 0x00, 0x01, 0x18, 0x00, 0x00, 0x00, 0x20, 0x00, 0x00, 0x00, 0x3c, 0x00, 0x00, 0x00, 0x1b, 0x00, 0x00, 0x00, 0x00, 0x00, 0x00, 0x09, 0x50, 0x00, 0x00, 0x00, 0x02, 0x00, 0x00, 0x00, 0xff, 0xff, 0xff, 0xff, 0x07, 0x00, 0x00, 0x00, 0xd4, 0xea, 0xff, 0xff, 0x08, 0x00, 0x00, 0x00, 0x10, 0x00, 0x00, 0x00, 0x01, 0x00, 0x00, 0x00, 0x80, 0xff, 0xff, 0xff, 0xff, 0xff, 0xff, 0xff, 0x01, 0x00, 0x00, 0x00, 0x00, 0x00, 0x80, 0x3b, 0x1b, 0x00, 0x00, 0x00, 0x53, 0x74, 0x61, 0x74, 0x65, 0x66, 0x75, 0x6c, 0x50, 0x61, 0x72, 0x74, 0x69, 0x74, 0x69, 0x6f, 0x6e, 0x65, 0x64, 0x43, 0x61, 0x6c, 0x6c, 0x5f, 0x31, 0x3a, 0x30, 0x00, 0x02, 0x00, 0x00, 0x00, 0x01, 0x00, 0x00, 0x00, 0x07, 0x00, 0x00, 0x00, 0x66, 0xeb, 0xff, 0xff, 0x00, 0x00, 0x00, 0x01, 0x18, 0x00, 0x00, 0x00, 0x20, 0x00, 0x00, 0x00, 0x40, 0x00, 0x00, 0x00, 0x1a, 0x00, 0x00, 0x00, 0x00, 0x00, 0x00, 0x09, 0x78, 0x00, 0x00, 0x00, 0x02, 0x00, 0x00, 0x00, 0xff, 0xff, 0xff, 0xff, 0x07, 0x00, 0x00, 0x00, 0x4c, 0xeb, 0xff, 0xff, 0x08, 0x00, 0x00, 0x00, 0x14, 0x00, 0x00, 0x00, 0x01, 0x00, 0x00, 0x00, 0x1b, 0x00, 0x00, 0x00, 0x00, 0x00, 0x00, 0x00, 0x00, 0x00, 0x00, 0x00, 0x01, 0x00, 0x00, 0x00, 0xf7, 0x92, 0x58, 0x3e, 0x3c, 0x00, 0x00, 0x00, 0x73, 0x65, 0x71, 0x75, 0x65, 0x6e, 0x74, 0x69, 0x61, 0x6c, 0x5f, 0x31, 0x2f, 0x64, 0x65, 0x6e, 0x73, 0x65, 0x5f, 0x31, 0x5f, 0x32, 0x2f, 0x4d, 0x61, 0x74, 0x4d, 0x75, 0x6c, 0x3b, 0x73, 0x65, 0x71, 0x75, 0x65, 0x6e, 0x74, 0x69, 0x61, 0x6c, 0x5f, 0x31, 0x2f, 0x64, 0x65, 0x6e, 0x73, 0x65, 0x5f, 0x31, 0x5f, 0x32, 0x2f, 0x42, 0x69, 0x61, 0x73, 0x41, 0x64, 0x64, 0x00, 0x00, 0x00, 0x00, 0x02, 0x00, 0x00, 0x00, 0x01, 0x00, 0x00, 0x00, 0x07, 0x00, 0x00, 0x00, 0x06, 0xec, 0xff, 0xff, 0x00, 0x00, 0x00, 0x01, 0x18, 0x00, 0x00, 0x00, 0x20, 0x00, 0x00, 0x00, 0x3c, 0x00, 0x00, 0x00, 0x19, 0x00, 0x00, 0x00, 0x00, 0x00, 0x00, 0x09, 0x88, 0x00, 0x00, 0x00, 0x02, 0x00, 0x00, 0x00, 0xff, 0xff, 0xff, 0xff, 0x20, 0x00, 0x00, 0x00, 0xec, 0xeb, 0xff, 0xff, 0x08, 0x00, 0x00, 0x00, 0x10, 0x00, 0x00, 0x00, 0x01, 0x00, 0x00, 0x00, 0x80, 0xff, 0xff, 0xff, 0xff, 0xff, 0xff, 0xff, 0x01, 0x00, 0x00, 0x00, 0x73, 0xd5, 0x1e, 0x3d, 0x52, 0x00, 0x00, 0x00, 0x73, 0x65, 0x71, 0x75, 0x65, 0x6e, 0x74, 0x69, 0x61, 0x6c, 0x5f, 0x31, 0x2f, 0x64, 0x65, 0x6e, 0x73, 0x65, 0x5f, 0x31, 0x2f, 0x4d, 0x61, 0x74, 0x4d, 0x75, 0x6c, 0x3b, 0x73, 0x65, 0x71, 0x75, 0x65, 0x6e, 0x74, 0x69, 0x61, 0x6c, 0x5f, 0x31, 0x2f, 0x64, 0x65, 0x6e, 0x73, 0x65, 0x5f, 0x31, 0x2f, 0x52, 0x65, 0x6c, 0x75, 0x3b, 0x73, 0x65, 0x71, 0x75, 0x65, 0x6e, 0x74, 0x69, 0x61, 0x6c, 0x5f, 0x31, 0x2f, 0x64, 0x65, 0x6e, 0x73, 0x65, 0x5f, 0x31, 0x2f, 0x42, 0x69, 0x61, 0x73, 0x41, 0x64, 0x64, 0x00, 0x00, 0x02, 0x00, 0x00, 0x00, 0x01, 0x00, 0x00, 0x00, 0x20, 0x00, 0x00, 0x00, 0xb6, 0xec, 0xff, 0xff, 0x00, 0x00, 0x00, 0x01, 0x18, 0x00, 0x00, 0x00, 0x20, 0x00, 0x00, 0x00, 0x3c, 0x00, 0x00, 0x00, 0x18, 0x00, 0x00, 0x00, 0x00, 0x00, 0x00, 0x09, 0x64, 0x00, 0x00, 0x00, 0x02, 0x00, 0x00, 0x00, 0xff, 0xff, 0xff, 0xff, 0x20, 0x00, 0x00, 0x00, 0x9c, 0xec, 0xff, 0xff, 0x08, 0x00, 0x00, 0x00, 0x10, 0x00, 0x00, 0x00, 0x01, 0x00, 0x00, 0x00, 0x80, 0xff, 0xff, 0xff, 0xff, 0xff, 0xff, 0xff, 0x01, 0x00, 0x00, 0x00, 0x92, 0x97, 0x83, 0x3c, 0x2c, 0x00, 0x00, 0x00, 0x73, 0x65, 0x71, 0x75, 0x65, 0x6e, 0x74, 0x69, 0x61, 0x6c, 0x5f, 0x31, 0x2f, 0x67, 0x6c, 0x6f, 0x62, 0x61, 0x6c, 0x5f, 0x61, 0x76, 0x65, 0x72, 0x61, 0x67, 0x65, 0x5f, 0x70, 0x6f, 0x6f, 0x6c, 0x69, 0x6e, 0x67, 0x31, 0x64, 0x5f, 0x31, 0x2f, 0x4d, 0x65, 0x61, 0x6e, 0x00, 0x00, 0x00, 0x00, 0x02, 0x00, 0x00, 0x00, 0x01, 0x00, 0x00, 0x00, 0x20, 0x00, 0x00, 0x00, 0x42, 0xed, 0xff, 0xff, 0x00, 0x00, 0x00, 0x01, 0x18, 0x00, 0x00, 0x00, 0x24, 0x00, 0x00, 0x00, 0x44, 0x00, 0x00, 0x00, 0x17, 0x00, 0x00, 0x00, 0x00, 0x00, 0x00, 0x09, 0xa8, 0x00, 0x00, 0x00, 0x03, 0x00, 0x00, 0x00, 0xff, 0xff, 0xff, 0xff, 0x19, 0x00, 0x00, 0x00, 0x20, 0x00, 0x00, 0x00, 0x2c, 0xed, 0xff, 0xff, 0x08, 0x00, 0x00, 0x00, 0x14, 0x00, 0x00, 0x00, 0x01, 0x00, 0x00, 0x00, 0x80, 0xff, 0xff, 0xff, 0xff, 0xff, 0xff, 0xff, 0x00, 0x00, 0x00, 0x00, 0x01, 0x00, 0x00, 0x00, 0xca, 0xd2, 0xb7, 0x3c, 0x69, 0x00, 0x00, 0x00, 0x73, 0x65, 0x71, 0x75, 0x65, 0x6e, 0x74, 0x69, 0x61, 0x6c, 0x5f, 0x31, 0x2f, 0x63, 0x6f, 0x6e, 0x76, 0x31, 0x64, 0x5f, 0x31, 0x5f, 0x32, 0x2f, 0x52, 0x65, 0x6c, 0x75, 0x3b, 0x73, 0x65, 0x71, 0x75, 0x65, 0x6e, 0x74, 0x69, 0x61, 0x6c, 0x5f, 0x31, 0x2f, 0x63, 0x6f, 0x6e, 0x76, 0x31, 0x64, 0x5f, 0x31, 0x5f, 0x32, 0x2f, 0x42, 0x69, 0x61, 0x73, 0x41, 0x64, 0x64, 0x3b, 0x73, 0x65, 0x71, 0x75, 0x65, 0x6e, 0x74, 0x69, 0x61, 0x6c, 0x5f, 0x31, 0x2f, 0x63, 0x6f, 0x6e, 0x76, 0x31, 0x64, 0x5f, 0x31, 0x5f, 0x32, 0x2f, 0x63, 0x6f, 0x6e, 0x76, 0x6f, 0x6c, 0x75, 0x74, 0x69, 0x6f, 0x6e, 0x2f, 0x53, 0x71, 0x75, 0x65, 0x65, 0x7a, 0x65, 0x3b, 0x00, 0x00, 0x00, 0x03, 0x00, 0x00, 0x00, 0x01, 0x00, 0x00, 0x00, 0x19, 0x00, 0x00, 0x00, 0x20, 0x00, 0x00, 0x00, 0x16, 0xee, 0xff, 0xff, 0x00, 0x00, 0x00, 0x01, 0x18, 0x00, 0x00, 0x00, 0x28, 0x00, 0x00, 0x00, 0x48, 0x00, 0x00, 0x00, 0x16, 0x00, 0x00, 0x00, 0x00, 0x00, 0x00, 0x09, 0xd0, 0x00, 0x00, 0x00, 0x04, 0x00, 0x00, 0x00, 0xff, 0xff, 0xff, 0xff, 0x01, 0x00, 0x00, 0x00, 0x19, 0x00, 0x00, 0x00, 0x20, 0x00, 0x00, 0x00, 0x04, 0xee, 0xff, 0xff, 0x08, 0x00, 0x00, 0x00, 0x14, 0x00, 0x00, 0x00, 0x01, 0x00, 0x00, 0x00, 0x80, 0xff, 0xff, 0xff, 0xff, 0xff, 0xff, 0xff, 0x00, 0x00, 0x00, 0x00, 0x01, 0x00, 0x00, 0x00, 0xca, 0xd2, 0xb7, 0x3c, 0x8d, 0x00, 0x00, 0x00, 0x73, 0x65, 0x71, 0x75, 0x65, 0x6e, 0x74, 0x69, 0x61, 0x6c, 0x5f, 0x31, 0x2f, 0x63, 0x6f, 0x6e, 0x76, 0x31, 0x64, 0x5f, 0x31, 0x5f, 0x32, 0x2f, 0x52, 0x65, 0x6c, 0x75, 0x3b, 0x73, 0x65, 0x71, 0x75, 0x65, 0x6e, 0x74, 0x69, 0x61, 0x6c, 0x5f, 0x31, 0x2f, 0x63, 0x6f, 0x6e, 0x76, 0x31, 0x64, 0x5f, 0x31, 0x5f, 0x32, 0x2f, 0x42, 0x69, 0x61, 0x73, 0x41, 0x64, 0x64, 0x3b, 0x73, 0x65, 0x71, 0x75, 0x65, 0x6e, 0x74, 0x69, 0x61, 0x6c, 0x5f, 0x31, 0x2f, 0x63, 0x6f, 0x6e, 0x76, 0x31, 0x64, 0x5f, 0x31, 0x5f, 0x32, 0x2f, 0x63, 0x6f, 0x6e, 0x76, 0x6f, 0x6c, 0x75, 0x74, 0x69, 0x6f, 0x6e, 0x2f, 0x53, 0x71, 0x75, 0x65, 0x65, 0x7a, 0x65, 0x3b, 0x3b, 0x73, 0x65, 0x71, 0x75, 0x65, 0x6e, 0x74, 0x69, 0x61, 0x6c, 0x5f, 0x31, 0x2f, 0x63, 0x6f, 0x6e, 0x76, 0x31, 0x64, 0x5f, 0x31, 0x5f, 0x32, 0x2f, 0x63, 0x6f, 0x6e, 0x76, 0x6f, 0x6c, 0x75, 0x74, 0x69, 0x6f, 0x6e, 0x00, 0x00, 0x00, 0x04, 0x00, 0x00, 0x00, 0x01, 0x00, 0x00, 0x00, 0x01, 0x00, 0x00, 0x00, 0x19, 0x00, 0x00, 0x00, 0x20, 0x00, 0x00, 0x00, 0x16, 0xef, 0xff, 0xff, 0x00, 0x00, 0x00, 0x01, 0x18, 0x00, 0x00, 0x00, 0x28, 0x00, 0x00, 0x00, 0x44, 0x00, 0x00, 0x00, 0x15, 0x00, 0x00, 0x00, 0x00, 0x00, 0x00, 0x09, 0x6c, 0x00, 0x00, 0x00, 0x04, 0x00, 0x00, 0x00, 0xff, 0xff, 0xff, 0xff, 0x01, 0x00, 0x00, 0x00, 0x19, 0x00, 0x00, 0x00, 0x10, 0x00, 0x00, 0x00, 0x04, 0xef, 0xff, 0xff, 0x08, 0x00, 0x00, 0x00, 0x10, 0x00, 0x00, 0x00, 0x01, 0x00, 0x00, 0x00, 0x80, 0xff, 0xff, 0xff, 0xff, 0xff, 0xff, 0xff, 0x01, 0x00, 0x00, 0x00, 0x29, 0x06, 0x2f, 0x3c, 0x2e, 0x00, 0x00, 0x00, 0x73, 0x65, 0x71, 0x75, 0x65, 0x6e, 0x74, 0x69, 0x61, 0x6c, 0x5f, 0x31, 0x2f, 0x63, 0x6f, 0x6e, 0x76, 0x31, 0x64, 0x5f, 0x31, 0x5f, 0x32, 0x2f, 0x63, 0x6f, 0x6e, 0x76, 0x6f, 0x6c, 0x75, 0x74, 0x69, 0x6f, 0x6e, 0x2f, 0x45, 0x78, 0x70, 0x61, 0x6e, 0x64, 0x44, 0x69, 0x6d, 0x73, 0x00, 0x00, 0x04, 0x00, 0x00, 0x00, 0x01, 0x00, 0x00, 0x00, 0x01, 0x00, 0x00, 0x00, 0x19, 0x00, 0x00, 0x00, 0x10, 0x00, 0x00, 0x00, 0xb2, 0xef, 0xff, 0xff, 0x00, 0x00, 0x00, 0x01, 0x18, 0x00, 0x00, 0x00, 0x24, 0x00, 0x00, 0x00, 0x40, 0x00, 0x00, 0x00, 0x14, 0x00, 0x00, 0x00, 0x00, 0x00, 0x00, 0x09, 0x68, 0x00, 0x00, 0x00, 0x03, 0x00, 0x00, 0x00, 0xff, 0xff, 0xff, 0xff, 0x19, 0x00, 0x00, 0x00, 0x10, 0x00, 0x00, 0x00, 0x9c, 0xef, 0xff, 0xff, 0x08, 0x00, 0x00, 0x00, 0x10, 0x00, 0x00, 0x00, 0x01, 0x00, 0x00, 0x00, 0x80, 0xff, 0xff, 0xff, 0xff, 0xff, 0xff, 0xff, 0x01, 0x00, 0x00, 0x00, 0x29, 0x06, 0x2f, 0x3c, 0x2e, 0x00, 0x00, 0x00, 0x73, 0x65, 0x71, 0x75, 0x65, 0x6e, 0x74, 0x69, 0x61, 0x6c, 0x5f, 0x31, 0x2f, 0x6d, 0x61, 0x78, 0x5f, 0x70, 0x6f, 0x6f, 0x6c, 0x69, 0x6e, 0x67, 0x31, 0x64, 0x5f, 0x31, 0x2f, 0x4d, 0x61, 0x78, 0x50, 0x6f, 0x6f, 0x6c, 0x31, 0x64, 0x2f, 0x53, 0x71, 0x75, 0x65, 0x65, 0x7a, 0x65, 0x00, 0x00, 0x03, 0x00, 0x00, 0x00, 0x01, 0x00, 0x00, 0x00, 0x19, 0x00, 0x00, 0x00, 0x10, 0x00, 0x00, 0x00, 0x46, 0xf0, 0xff, 0xff, 0x00, 0x00, 0x00, 0x01, 0x18, 0x00, 0x00, 0x00, 0x28, 0x00, 0x00, 0x00, 0x48, 0x00, 0x00, 0x00, 0x13, 0x00, 0x00, 0x00, 0x00, 0x00, 0x00, 0x09, 0x68, 0x00, 0x00, 0x00, 0x04, 0x00, 0x00, 0x00, 0xff, 0xff, 0xff, 0xff, 0x01, 0x00, 0x00, 0x00, 0x19, 0x00, 0x00, 0x00, 0x10, 0x00, 0x00, 0x00, 0x34, 0xf0, 0xff, 0xff, 0x08, 0x00, 0x00, 0x00, 0x14, 0x00, 0x00, 0x00, 0x01, 0x00, 0x00, 0x00, 0x80, 0xff, 0xff, 0xff, 0xff, 0xff, 0xff, 0xff, 0x00, 0x00, 0x00, 0x00, 0x01, 0x00, 0x00, 0x00, 0x29, 0x06, 0x2f, 0x3c, 0x26, 0x00, 0x00, 0x00, 0x73, 0x65, 0x71, 0x75, 0x65, 0x6e, 0x74, 0x69, 0x61, 0x6c, 0x5f, 0x31, 0x2f, 0x6d, 0x61, 0x78, 0x5f, 0x70, 0x6f, 0x6f, 0x6c, 0x69, 0x6e, 0x67, 0x31, 0x64, 0x5f, 0x31, 0x2f, 0x4d, 0x61, 0x78, 0x50, 0x6f, 0x6f, 0x6c, 0x31, 0x64, 0x00, 0x00, 0x04, 0x00, 0x00, 0x00, 0x01, 0x00, 0x00, 0x00, 0x01, 0x00, 0x00, 0x00, 0x19, 0x00, 0x00, 0x00, 0x10, 0x00, 0x00, 0x00, 0xde, 0xf0, 0xff, 0xff, 0x00, 0x00, 0x00, 0x01, 0x18, 0x00, 0x00, 0x00, 0x28, 0x00, 0x00, 0x00, 0x48, 0x00, 0x00, 0x00, 0x12, 0x00, 0x00, 0x00, 0x00, 0x00, 0x00, 0x09, 0x74, 0x00, 0x00, 0x00, 0x04, 0x00, 0x00, 0x00, 0xff, 0xff, 0xff, 0xff, 0x01, 0x00, 0x00, 0x00, 0x32, 0x00, 0x00, 0x00, 0x10, 0x00, 0x00, 0x00, 0xcc, 0xf0, 0xff, 0xff, 0x08, 0x00, 0x00, 0x00, 0x14, 0x00, 0x00, 0x00, 0x01, 0x00, 0x00, 0x00, 0x80, 0xff, 0xff, 0xff, 0xff, 0xff, 0xff, 0xff, 0x00, 0x00, 0x00, 0x00, 0x01, 0x00, 0x00, 0x00, 0x29, 0x06, 0x2f, 0x3c, 0x31, 0x00, 0x00, 0x00, 0x73, 0x65, 0x71, 0x75, 0x65, 0x6e, 0x74, 0x69, 0x61, 0x6c, 0x5f, 0x31, 0x2f, 0x6d, 0x61, 0x78, 0x5f, 0x70, 0x6f, 0x6f, 0x6c, 0x69, 0x6e, 0x67, 0x31, 0x64, 0x5f, 0x31, 0x2f, 0x4d, 0x61, 0x78, 0x50, 0x6f, 0x6f, 0x6c, 0x31, 0x64, 0x2f, 0x45, 0x78, 0x70, 0x61, 0x6e, 0x64, 0x44, 0x69, 0x6d, 0x73, 0x00, 0x00, 0x00, 0x04, 0x00, 0x00, 0x00, 0x01, 0x00, 0x00, 0x00, 0x01, 0x00, 0x00, 0x00, 0x32, 0x00, 0x00, 0x00, 0x10, 0x00, 0x00, 0x00, 0x82, 0xf1, 0xff, 0xff, 0x00, 0x00, 0x00, 0x01, 0x18, 0x00, 0x00, 0x00, 0x24, 0x00, 0x00, 0x00, 0x44, 0x00, 0x00, 0x00, 0x11, 0x00, 0x00, 0x00, 0x00, 0x00, 0x00, 0x09, 0xa0, 0x00, 0x00, 0x00, 0x03, 0x00, 0x00, 0x00, 0xff, 0xff, 0xff, 0xff, 0x32, 0x00, 0x00, 0x00, 0x10, 0x00, 0x00, 0x00, 0x6c, 0xf1, 0xff, 0xff, 0x08, 0x00, 0x00, 0x00, 0x14, 0x00, 0x00, 0x00, 0x01, 0x00, 0x00, 0x00, 0x80, 0xff, 0xff, 0xff, 0xff, 0xff, 0xff, 0xff, 0x00, 0x00, 0x00, 0x00, 0x01, 0x00, 0x00, 0x00, 0x29, 0x06, 0x2f, 0x3c, 0x63, 0x00, 0x00, 0x00, 0x73, 0x65, 0x71, 0x75, 0x65, 0x6e, 0x74, 0x69, 0x61, 0x6c, 0x5f, 0x31, 0x2f, 0x63, 0x6f, 0x6e, 0x76, 0x31, 0x64, 0x5f, 0x31, 0x2f, 0x52, 0x65, 0x6c, 0x75, 0x3b, 0x73, 0x65, 0x71, 0x75, 0x65, 0x6e, 0x74, 0x69, 0x61, 0x6c, 0x5f, 0x31, 0x2f, 0x63, 0x6f, 0x6e, 0x76, 0x31, 0x64, 0x5f, 0x31, 0x2f, 0x42, 0x69, 0x61, 0x73, 0x41, 0x64, 0x64, 0x3b, 0x73, 0x65, 0x71, 0x75, 0x65, 0x6e, 0x74, 0x69, 0x61, 0x6c, 0x5f, 0x31, 0x2f, 0x63, 0x6f, 0x6e, 0x76, 0x31, 0x64, 0x5f, 0x31, 0x2f, 0x63, 0x6f, 0x6e, 0x76, 0x6f, 0x6c, 0x75, 0x74, 0x69, 0x6f, 0x6e, 0x2f, 0x53, 0x71, 0x75, 0x65, 0x65, 0x7a, 0x65, 0x3b, 0x00, 0x03, 0x00, 0x00, 0x00, 0x01, 0x00, 0x00, 0x00, 0x32, 0x00, 0x00, 0x00, 0x10, 0x00, 0x00, 0x00, 0x4e, 0xf2, 0xff, 0xff, 0x00, 0x00, 0x00, 0x01, 0x18, 0x00, 0x00, 0x00, 0x28, 0x00, 0x00, 0x00, 0x48, 0x00, 0x00, 0x00, 0x10, 0x00, 0x00, 0x00, 0x00, 0x00, 0x00, 0x09, 0xc8, 0x00, 0x00, 0x00, 0x04, 0x00, 0x00, 0x00, 0xff, 0xff, 0xff, 0xff, 0x01, 0x00, 0x00, 0x00, 0x32, 0x00, 0x00, 0x00, 0x10, 0x00, 0x00, 0x00, 0x3c, 0xf2, 0xff, 0xff, 0x08, 0x00, 0x00, 0x00, 0x14, 0x00, 0x00, 0x00, 0x01, 0x00, 0x00, 0x00, 0x80, 0xff, 0xff, 0xff, 0xff, 0xff, 0xff, 0xff, 0x00, 0x00, 0x00, 0x00, 0x01, 0x00, 0x00, 0x00, 0x29, 0x06, 0x2f, 0x3c, 0x85, 0x00, 0x00, 0x00, 0x73, 0x65, 0x71, 0x75, 0x65, 0x6e, 0x74, 0x69, 0x61, 0x6c, 0x5f, 0x31, 0x2f, 0x63, 0x6f, 0x6e, 0x76, 0x31, 0x64, 0x5f, 0x31, 0x2f, 0x52, 0x65, 0x6c, 0x75, 0x3b, 0x73, 0x65, 0x71, 0x75, 0x65, 0x6e, 0x74, 0x69, 0x61, 0x6c, 0x5f, 0x31, 0x2f, 0x63, 0x6f, 0x6e, 0x76, 0x31, 0x64, 0x5f, 0x31, 0x2f, 0x42, 0x69, 0x61, 0x73, 0x41, 0x64, 0x64, 0x3b, 0x73, 0x65, 0x71, 0x75, 0x65, 0x6e, 0x74, 0x69, 0x61, 0x6c, 0x5f, 0x31, 0x2f, 0x63, 0x6f, 0x6e, 0x76, 0x31, 0x64, 0x5f, 0x31, 0x2f, 0x63, 0x6f, 0x6e, 0x76, 0x6f, 0x6c, 0x75, 0x74, 0x69, 0x6f, 0x6e, 0x2f, 0x53, 0x71, 0x75, 0x65, 0x65, 0x7a, 0x65, 0x3b, 0x3b, 0x73, 0x65, 0x71, 0x75, 0x65, 0x6e, 0x74, 0x69, 0x61, 0x6c, 0x5f, 0x31, 0x2f, 0x63, 0x6f, 0x6e, 0x76, 0x31, 0x64, 0x5f, 0x31, 0x2f, 0x63, 0x6f, 0x6e, 0x76, 0x6f, 0x6c, 0x75, 0x74, 0x69, 0x6f, 0x6e, 0x00, 0x00, 0x00, 0x04, 0x00, 0x00, 0x00, 0x01, 0x00, 0x00, 0x00, 0x01, 0x00, 0x00, 0x00, 0x32, 0x00, 0x00, 0x00, 0x10, 0x00, 0x00, 0x00, 0x46, 0xf3, 0xff, 0xff, 0x00, 0x00, 0x00, 0x01, 0x18, 0x00, 0x00, 0x00, 0x28, 0x00, 0x00, 0x00, 0x48, 0x00, 0x00, 0x00, 0x0f, 0x00, 0x00, 0x00, 0x00, 0x00, 0x00, 0x09, 0x70, 0x00, 0x00, 0x00, 0x04, 0x00, 0x00, 0x00, 0xff, 0xff, 0xff, 0xff, 0x01, 0x00, 0x00, 0x00, 0x32, 0x00, 0x00, 0x00, 0x04, 0x00, 0x00, 0x00, 0x34, 0xf3, 0xff, 0xff, 0x08, 0x00, 0x00, 0x00, 0x14, 0x00, 0x00, 0x00, 0x01, 0x00, 0x00, 0x00, 0x80, 0xff, 0xff, 0xff, 0xff, 0xff, 0xff, 0xff, 0x00, 0x00, 0x00, 0x00, 0x01, 0x00, 0x00, 0x00, 0x0c, 0x80, 0x80, 0x3b, 0x2c, 0x00, 0x00, 0x00, 0x73, 0x65, 0x71, 0x75, 0x65, 0x6e, 0x74, 0x69, 0x61, 0x6c, 0x5f, 0x31, 0x2f, 0x63, 0x6f, 0x6e, 0x76, 0x31, 0x64, 0x5f, 0x31, 0x2f, 0x63, 0x6f, 0x6e, 0x76, 0x6f, 0x6c, 0x75, 0x74, 0x69, 0x6f, 0x6e, 0x2f, 0x45, 0x78, 0x70, 0x61, 0x6e, 0x64, 0x44, 0x69, 0x6d, 0x73, 0x00, 0x00, 0x00, 0x00, 0x04, 0x00, 0x00, 0x00, 0x01, 0x00, 0x00, 0x00, 0x01, 0x00, 0x00, 0x00, 0x32, 0x00, 0x00, 0x00, 0x04, 0x00, 0x00, 0x00, 0x3a, 0xf4, 0xff, 0xff, 0x00, 0x00, 0x00, 0x01, 0x14, 0x00, 0x00, 0x00, 0xe8, 0x00, 0x00, 0x00, 0x0e, 0x00, 0x00, 0x00, 0x00, 0x00, 0x00, 0x09, 0xf4, 0x00, 0x00, 0x00, 0xbc, 0xf3, 0xff, 0xff, 0x08, 0x00, 0x00, 0x00, 0x8c, 0x00, 0x00, 0x00, 0x10, 0x00, 0x00, 0x00, 0x00, 0x00, 0x00, 0x00, 0x00, 0x00, 0x00, 0x00, 0x00, 0x00, 0x00, 0x00, 0x00, 0x00, 0x00, 0x00, 0x00, 0x00, 0x00, 0x00, 0x00, 0x00, 0x00, 0x00, 0x00, 0x00, 0x00, 0x00, 0x00, 0x00, 0x00, 0x00, 0x00, 0x00, 0x00, 0x00, 0x00, 0x00, 0x00, 0x00, 0x00, 0x00, 0x00, 0x00, 0x00, 0x00, 0x00, 0x00, 0x00, 0x00, 0x00, 0x00, 0x00, 0x00, 0x00, 0x00, 0x00, 0x00, 0x00, 0x00, 0x00, 0x00, 0x00, 0x00, 0x00, 0x00, 0x00, 0x00, 0x00, 0x00, 0x00, 0x00, 0x00, 0x00, 0x00, 0x00, 0x00, 0x00, 0x00, 0x00, 0x00, 0x00, 0x00, 0x00, 0x00, 0x00, 0x00, 0x00, 0x00, 0x00, 0x00, 0x00, 0x00, 0x00, 0x00, 0x00, 0x00, 0x00, 0x00, 0x00, 0x00, 0x00, 0x00, 0x00, 0x00, 0x00, 0x00, 0x00, 0x00, 0x00, 0x00, 0x00, 0x00, 0x00, 0x00, 0x00, 0x00, 0x00, 0x00, 0x00, 0x00, 0x00, 0x00, 0x00, 0x00, 0x00, 0x00, 0x00, 0x00, 0x00, 0x00, 0x00, 0x10, 0x00, 0x00, 0x00, 0xe9, 0x59, 0xbc, 0x3b, 0xa9, 0x5a, 0x4a, 0x3b, 0xa6, 0x36, 0xb6, 0x3b, 0x60, 0x4e, 0xc5, 0x3b, 0x02, 0x34, 0x8e, 0x3b, 0x3c, 0x5a, 0x9b, 0x3b, 0x10, 0x45, 0xb5, 0x3b, 0xf6, 0x30, 0x51, 0x3b, 0x35, 0x25, 0xc0, 0x3b, 0x56, 0x85, 0x68, 0x3b, 0xd9, 0xcb, 0x85, 0x3b, 0x0e, 0x45, 0x91, 0x3b, 0xae, 0xe6, 0xaa, 0x3b, 0x5e, 0xae, 0x88, 0x3b, 0x5e, 0xfe, 0x60, 0x3b, 0x46, 0x69, 0x9b, 0x3b, 0x12, 0x00, 0x00, 0x00, 0x74, 0x66, 0x6c, 0x2e, 0x70, 0x73, 0x65, 0x75, 0x64, 0x6f, 0x5f, 0x71, 0x63, 0x6f, 0x6e, 0x73, 0x74, 0x37, 0x00, 0x00, 0x04, 0x00, 0x00, 0x00, 0x10, 0x00, 0x00, 0x00, 0x01, 0x00, 0x00, 0x00, 0x03, 0x00, 0x00, 0x00, 0x04, 0x00, 0x00, 0x00, 0x5a, 0xf5, 0xff, 0xff, 0x00, 0x00, 0x00, 0x01, 0x14, 0x00, 0x00, 0x00, 0xe4, 0x00, 0x00, 0x00, 0x0d, 0x00, 0x00, 0x00, 0x00, 0x00, 0x00, 0x02, 0xf0, 0x00, 0x00, 0x00, 0xdc, 0xf4, 0xff, 0xff, 0x08, 0x00, 0x00, 0x00, 0x88, 0x00, 0x00, 0x00, 0x10, 0x00, 0x00, 0x00, 0x00, 0x00, 0x00, 0x00, 0x00, 0x00, 0x00, 0x00, 0x00, 0x00, 0x00, 0x00, 0x00, 0x00, 0x00, 0x00, 0x00, 0x00, 0x00, 0x00, 0x00, 0x00, 0x00, 0x00, 0x00, 0x00, 0x00, 0x00, 0x00, 0x00, 0x00, 0x00, 0x00, 0x00, 0x00, 0x00, 0x00, 0x00, 0x00, 0x00, 0x00, 0x00, 0x00, 0x00, 0x00, 0x00, 0x00, 0x00, 0x00, 0x00, 0x00, 0x00, 0x00, 0x00, 0x00, 0x00, 0x00, 0x00, 0x00, 0x00, 0x00, 0x00, 0x00, 0x00, 0x00, 0x00, 0x00, 0x00, 0x00, 0x00, 0x00, 0x00, 0x00, 0x00, 0x00, 0x00, 0x00, 0x00, 0x00, 0x00, 0x00, 0x00, 0x00, 0x00, 0x00, 0x00, 0x00, 0x00, 0x00, 0x00, 0x00, 0x00, 0x00, 0x00, 0x00, 0x00, 0x00, 0x00, 0x00, 0x00, 0x00, 0x00, 0x00, 0x00, 0x00, 0x00, 0x00, 0x00, 0x00, 0x00, 0x00, 0x00, 0x00, 0x00, 0x00, 0x00, 0x00, 0x00, 0x00, 0x00, 0x00, 0x00, 0x00, 0x00, 0x00, 0x00, 0x00, 0x00, 0x10, 0x00, 0x00, 0x00, 0x55, 0x16, 0xbd, 0x37, 0x17, 0x25, 0x4b, 0x37, 0xee, 0xec, 0xb6, 0x37, 0xc1, 0x13, 0xc6, 0x37, 0x43, 0xc2, 0x8e, 0x37, 0xa5, 0xf5, 0x9b, 0x37, 0x66, 0xfa, 0xb5, 0x37, 0x3b, 0x02, 0x52, 0x37, 0x6c, 0xe5, 0xc0, 0x37, 0xf1, 0x6d, 0x69, 0x37, 0xb1, 0x51, 0x86, 0x37, 0x61, 0xd6, 0x91, 0x37, 0xa5, 0x91, 0xab, 0x37, 0x19, 0x37, 0x89, 0x37, 0x71, 0xdf, 0x61, 0x37, 0xbe, 0x04, 0x9c, 0x37, 0x12, 0x00, 0x00, 0x00, 0x74, 0x66, 0x6c, 0x2e, 0x70, 0x73, 0x65, 0x75, 0x64, 0x6f, 0x5f, 0x71, 0x63, 0x6f, 0x6e, 0x73, 0x74, 0x36, 0x00, 0x00, 0x01, 0x00, 0x00, 0x00, 0x10, 0x00, 0x00, 0x00, 0x6a, 0xf6, 0xff, 0xff, 0x00, 0x00, 0x00, 0x01, 0x14, 0x00, 0x00, 0x00, 0xa8, 0x01, 0x00, 0x00, 0x0c, 0x00, 0x00, 0x00, 0x00, 0x00, 0x00, 0x09, 0xb4, 0x01, 0x00, 0x00, 0xec, 0xf5, 0xff, 0xff, 0x08, 0x00, 0x00, 0x00, 0x0c, 0x01, 0x00, 0x00, 0x20, 0x00, 0x00, 0x00, 0x00, 0x00, 0x00, 0x00, 0x00, 0x00, 0x00, 0x00, 0x00, 0x00, 0x00, 0x00, 0x00, 0x00, 0x00, 0x00, 0x00, 0x00, 0x00, 0x00, 0x00, 0x00, 0x00, 0x00, 0x00, 0x00, 0x00, 0x00, 0x00, 0x00, 0x00, 0x00, 0x00, 0x00, 0x00, 0x00, 0x00, 0x00, 0x00, 0x00, 0x00, 0x00, 0x00, 0x00, 0x00, 0x00, 0x00, 0x00, 0x00, 0x00, 0x00, 0x00, 0x00, 0x00, 0x00, 0x00, 0x00, 0x00, 0x00, 0x00, 0x00, 0x00, 0x00, 0x00, 0x00, 0x00, 0x00, 0x00, 0x00, 0x00, 0x00, 0x00, 0x00, 0x00, 0x00, 0x00, 0x00, 0x00, 0x00, 0x00, 0x00, 0x00, 0x00, 0x00, 0x00, 0x00, 0x00, 0x00, 0x00, 0x00, 0x00, 0x00, 0x00, 0x00, 0x00, 0x00, 0x00, 0x00, 0x00, 0x00, 0x00, 0x00, 0x00, 0x00, 0x00, 0x00, 0x00, 0x00, 0x00, 0x00, 0x00, 0x00, 0x00, 0x00, 0x00, 0x00, 0x00, 0x00, 0x00, 0x00, 0x00, 0x00, 0x00, 0x00, 0x00, 0x00, 0x00, 0x00, 0x00, 0x00, 0x00, 0x00, 0x00, 0x00, 0x00, 0x00, 0x00, 0x00, 0x00, 0x00, 0x00, 0x00, 0x00, 0x00, 0x00, 0x00, 0x00, 0x00, 0x00, 0x00, 0x00, 0x00, 0x00, 0x00, 0x00, 0x00, 0x00, 0x00, 0x00, 0x00, 0x00, 0x00, 0x00, 0x00, 0x00, 0x00, 0x00, 0x00, 0x00, 0x00, 0x00, 0x00, 0x00, 0x00, 0x00, 0x00, 0x00, 0x00, 0x00, 0x00, 0x00, 0x00, 0x00, 0x00, 0x00, 0x00, 0x00, 0x00, 0x00, 0x00, 0x00, 0x00, 0x00, 0x00, 0x00, 0x00, 0x00, 0x00, 0x00, 0x00, 0x00, 0x00, 0x00, 0x00, 0x00, 0x00, 0x00, 0x00, 0x00, 0x00, 0x00, 0x00, 0x00, 0x00, 0x00, 0x00, 0x00, 0x00, 0x00, 0x00, 0x00, 0x00, 0x00, 0x00, 0x00, 0x00, 0x00, 0x00, 0x00, 0x00, 0x00, 0x00, 0x00, 0x00, 0x00, 0x00, 0x00, 0x00, 0x00, 0x00, 0x00, 0x00, 0x00, 0x00, 0x00, 0x00, 0x00, 0x00, 0x00, 0x00, 0x00, 0x00, 0x00, 0x00, 0x00, 0x00, 0x00, 0x00, 0x00, 0x00, 0x20, 0x00, 0x00, 0x00, 0x87, 0xad, 0x63, 0x3b, 0x0c, 0xe6, 0x81, 0x3b, 0x4b, 0x03, 0x84, 0x3b, 0x58, 0x7b, 0x43, 0x3b, 0xe6, 0x14, 0x25, 0x3b, 0x3b, 0x4c, 0xa1, 0x3b, 0x82, 0xc5, 0x66, 0x3b, 0xc2, 0x9e, 0x74, 0x3b, 0xd4, 0xdf, 0x39, 0x3b, 0x4f, 0xde, 0x53, 0x3b, 0x0f, 0x59, 0x97, 0x3b, 0x72, 0xfa, 0x5f, 0x3b, 0x42, 0xe2, 0x8a, 0x3b, 0x49, 0xa8, 0x45, 0x3b, 0x07, 0xf2, 0x85, 0x3b, 0x5d, 0x14, 0x9d, 0x3b, 0xd4, 0x49, 0x55, 0x3b, 0xe8, 0xca, 0x8e, 0x3b, 0x39, 0x99, 0x6e, 0x3b, 0x0a, 0x0b, 0x6e, 0x3b, 0x3b, 0xaa, 0x83, 0x3b, 0x32, 0xc5, 0x23, 0x3b, 0x32, 0xfd, 0x91, 0x3b, 0x84, 0x40, 0x36, 0x3b, 0x25, 0xbc, 0x69, 0x3b, 0x83, 0x00, 0x33, 0x3b, 0xac, 0xc0, 0x56, 0x3b, 0xf4, 0x26, 0x6d, 0x3b, 0xb9, 0xbd, 0x85, 0x3b, 0x5a, 0x1f, 0x77, 0x3b, 0xf2, 0xe7, 0x6f, 0x3b, 0x9d, 0x03, 0xa0, 0x3b, 0x12, 0x00, 0x00, 0x00, 0x74, 0x66, 0x6c, 0x2e, 0x70, 0x73, 0x65, 0x75, 0x64, 0x6f, 0x5f, 0x71, 0x63, 0x6f, 0x6e, 0x73, 0x74, 0x35, 0x00, 0x00, 0x04, 0x00, 0x00, 0x00, 0x20, 0x00, 0x00, 0x00, 0x01, 0x00, 0x00, 0x00, 0x03, 0x00, 0x00, 0x00, 0x10, 0x00, 0x00, 0x00, 0x4a, 0xf8, 0xff, 0xff, 0x00, 0x00, 0x00, 0x01, 0x14, 0x00, 0x00, 0x00, 0xa4, 0x01, 0x00, 0x00, 0x0b, 0x00, 0x00, 0x00, 0x00, 0x00, 0x00, 0x02, 0xb0, 0x01, 0x00, 0x00, 0xcc, 0xf7, 0xff, 0xff, 0x08, 0x00, 0x00, 0x00, 0x08, 0x01, 0x00, 0x00, 0x20, 0x00, 0x00, 0x00, 0x00, 0x00, 0x00, 0x00, 0x00, 0x00, 0x00, 0x00, 0x00, 0x00, 0x00, 0x00, 0x00, 0x00, 0x00, 0x00, 0x00, 0x00, 0x00, 0x00, 0x00, 0x00, 0x00, 0x00, 0x00, 0x00, 0x00, 0x00, 0x00, 0x00, 0x00, 0x00, 0x00, 0x00, 0x00, 0x00, 0x00, 0x00, 0x00, 0x00, 0x00, 0x00, 0x00, 0x00, 0x00, 0x00, 0x00, 0x00, 0x00, 0x00, 0x00, 0x00, 0x00, 0x00, 0x00, 0x00, 0x00, 0x00, 0x00, 0x00, 0x00, 0x00, 0x00, 0x00, 0x00, 0x00, 0x00, 0x00, 0x00, 0x00, 0x00, 0x00, 0x00, 0x00, 0x00, 0x00, 0x00, 0x00, 0x00, 0x00, 0x00, 0x00, 0x00, 0x00, 0x00, 0x00, 0x00, 0x00, 0x00, 0x00, 0x00, 0x00, 0x00, 0x00, 0x00, 0x00, 0x00, 0x00, 0x00, 0x00, 0x00, 0x00, 0x00, 0x00, 0x00, 0x00, 0x00, 0x00, 0x00, 0x00, 0x00, 0x00, 0x00, 0x00, 0x00, 0x00, 0x00, 0x00, 0x00, 0x00, 0x00, 0x00, 0x00, 0x00, 0x00, 0x00, 0x00, 0x00, 0x00, 0x00, 0x00, 0x00, 0x00, 0x00, 0x00, 0x00, 0x00, 0x00, 0x00, 0x00, 0x00, 0x00, 0x00, 0x00, 0x00, 0x00, 0x00, 0x00, 0x00, 0x00, 0x00, 0x00, 0x00, 0x00, 0x00, 0x00, 0x00, 0x00, 0x00, 0x00, 0x00, 0x00, 0x00, 0x00, 0x00, 0x00, 0x00, 0x00, 0x00, 0x00, 0x00, 0x00, 0x00, 0x00, 0x00, 0x00, 0x00, 0x00, 0x00, 0x00, 0x00, 0x00, 0x00, 0x00, 0x00, 0x00, 0x00, 0x00, 0x00, 0x00, 0x00, 0x00, 0x00, 0x00, 0x00, 0x00, 0x00, 0x00, 0x00, 0x00, 0x00, 0x00, 0x00, 0x00, 0x00, 0x00, 0x00, 0x00, 0x00, 0x00, 0x00, 0x00, 0x00, 0x00, 0x00, 0x00, 0x00, 0x00, 0x00, 0x00, 0x00, 0x00, 0x00, 0x00, 0x00, 0x00, 0x00, 0x00, 0x00, 0x00, 0x00, 0x00, 0x00, 0x00, 0x00, 0x00, 0x00, 0x00, 0x00, 0x00, 0x00, 0x00, 0x00, 0x00, 0x00, 0x00, 0x00, 0x00, 0x00, 0x00, 0x00, 0x00, 0x00, 0x00, 0x00, 0x00, 0x20, 0x00, 0x00, 0x00, 0x1a, 0xa9, 0x1b, 0x38, 0xc5, 0x9e, 0x31, 0x38, 0xdb, 0x82, 0x34, 0x38, 0x05, 0xa6, 0x05, 0x38, 0x84, 0xba, 0xe1, 0x37, 0xfc, 0x8d, 0x5c, 0x38, 0x91, 0xc6, 0x1d, 0x38, 0x6a, 0x3e, 0x27, 0x38, 0xf6, 0x28, 0xfe, 0x37, 0x11, 0xda, 0x10, 0x38, 0x0b, 0xf3, 0x4e, 0x38, 0x98, 0x21, 0x19, 0x38, 0x05, 0xe8, 0x3d, 0x38, 0xcc, 0x22, 0x07, 0x38, 0x58, 0x27, 0x37, 0x38, 0x66, 0xc9, 0x56, 0x38, 0x9a, 0xd2, 0x11, 0x38, 0x48, 0x40, 0x43, 0x38, 0x7c, 0x20, 0x23, 0x38, 0x46, 0xbf, 0x22, 0x38, 0x13, 0x09, 0x34, 0x38, 0x7c, 0xef, 0xdf, 0x37, 0x31, 0x9f, 0x47, 0x38, 0xfa, 0x34, 0xf9, 0x37, 0x3d, 0xcd, 0x1f, 0x38, 0x50, 0xc3, 0xf4, 0x37, 0xe0, 0xd2, 0x12, 0x38, 0x56, 0x23, 0x22, 0x38, 0xd3, 0xdf, 0x36, 0x38, 0x61, 0xf4, 0x28, 0x38, 0x54, 0x05, 0x24, 0x38, 0xa4, 0xcc, 0x5a, 0x38, 0x12, 0x00, 0x00, 0x00, 0x74, 0x66, 0x6c, 0x2e, 0x70, 0x73, 0x65, 0x75, 0x64, 0x6f, 0x5f, 0x71, 0x63, 0x6f, 0x6e, 0x73, 0x74, 0x34, 0x00, 0x00, 0x01, 0x00, 0x00, 0x00, 0x20, 0x00, 0x00, 0x00, 0x1a, 0xfa, 0xff, 0xff, 0x00, 0x00, 0x00, 0x01, 0x14, 0x00, 0x00, 0x00, 0xa8, 0x01, 0x00, 0x00, 0x0a, 0x00, 0x00, 0x00, 0x00, 0x00, 0x00, 0x09, 0xb4, 0x01, 0x00, 0x00, 0x9c, 0xf9, 0xff, 0xff, 0x08, 0x00, 0x00, 0x00, 0x0c, 0x01, 0x00, 0x00, 0x20, 0x00, 0x00, 0x00, 0x00, 0x00, 0x00, 0x00, 0x00, 0x00, 0x00, 0x00, 0x00, 0x00, 0x00, 0x00, 0x00, 0x00, 0x00, 0x00, 0x00, 0x00, 0x00, 0x00, 0x00, 0x00, 0x00, 0x00, 0x00, 0x00, 0x00, 0x00, 0x00, 0x00, 0x00, 0x00, 0x00, 0x00, 0x00, 0x00, 0x00, 0x00, 0x00, 0x00, 0x00, 0x00, 0x00, 0x00, 0x00, 0x00, 0x00, 0x00, 0x00, 0x00, 0x00, 0x00, 0x00, 0x00, 0x00, 0x00, 0x00, 0x00, 0x00, 0x00, 0x00, 0x00, 0x00, 0x00, 0x00, 0x00, 0x00, 0x00, 0x00, 0x00, 0x00, 0x00, 0x00, 0x00, 0x00, 0x00, 0x00, 0x00, 0x00, 0x00, 0x00, 0x00, 0x00, 0x00, 0x00, 0x00, 0x00, 0x00, 0x00, 0x00, 0x00, 0x00, 0x00, 0x00, 0x00, 0x00, 0x00, 0x00, 0x00, 0x00, 0x00, 0x00, 0x00, 0x00, 0x00, 0x00, 0x00, 0x00, 0x00, 0x00, 0x00, 0x00, 0x00, 0x00, 0x00, 0x00, 0x00, 0x00, 0x00, 0x00, 0x00, 0x00, 0x00, 0x00, 0x00, 0x00, 0x00, 0x00, 0x00, 0x00, 0x00, 0x00, 0x00, 0x00, 0x00, 0x00, 0x00, 0x00, 0x00, 0x00, 0x00, 0x00, 0x00, 0x00, 0x00, 0x00, 0x00, 0x00, 0x00, 0x00, 0x00, 0x00, 0x00, 0x00, 0x00, 0x00, 0x00, 0x00, 0x00, 0x00, 0x00, 0x00, 0x00, 0x00, 0x00, 0x00, 0x00, 0x00, 0x00, 0x00, 0x00, 0x00, 0x00, 0x00, 0x00, 0x00, 0x00, 0x00, 0x00, 0x00, 0x00, 0x00, 0x00, 0x00, 0x00, 0x00, 0x00, 0x00, 0x00, 0x00, 0x00, 0x00, 0x00, 0x00, 0x00, 0x00, 0x00, 0x00, 0x00, 0x00, 0x00, 0x00, 0x00, 0x00, 0x00, 0x00, 0x00, 0x00, 0x00, 0x00, 0x00, 0x00, 0x00, 0x00, 0x00, 0x00, 0x00, 0x00, 0x00, 0x00, 0x00, 0x00, 0x00, 0x00, 0x00, 0x00, 0x00, 0x00, 0x00, 0x00, 0x00, 0x00, 0x00, 0x00, 0x00, 0x00, 0x00, 0x00, 0x00, 0x00, 0x00, 0x00, 0x00, 0x00, 0x00, 0x00, 0x00, 0x00, 0x00, 0x00, 0x00, 0x00, 0x00, 0x00, 0x00, 0x00, 0x00, 0x00, 0x00, 0x00, 0x20, 0x00, 0x00, 0x00, 0x0a, 0xc0, 0x67, 0x3b, 0xd6, 0xae, 0x90, 0x3b, 0xfe, 0x93, 0xa6, 0x3b, 0xb1, 0xbf, 0x51, 0x3b, 0x54, 0x8c, 0x97, 0x3b, 0x21, 0xe9, 0x8b, 0x3b, 0xa0, 0x60, 0x8e, 0x3b, 0xd1, 0x11, 0x88, 0x3b, 0x3e, 0x51, 0x0c, 0x3b, 0x7a, 0x38, 0x92, 0x3b, 0xd5, 0xb6, 0x50, 0x3b, 0xa3, 0x86, 0x73, 0x3b, 0x9c, 0x69, 0x91, 0x3b, 0x3a, 0xdb, 0x4f, 0x3b, 0xac, 0x9d, 0x90, 0x3b, 0x60, 0x24, 0x86, 0x3b, 0x1b, 0x42, 0x9c, 0x3b, 0xbe, 0x0a, 0x8f, 0x3b, 0xba, 0x30, 0x21, 0x3b, 0xb5, 0x48, 0x7e, 0x3b, 0x68, 0x4b, 0x64, 0x3b, 0x7e, 0x2e, 0x23, 0x3b, 0x2b, 0xa1, 0x81, 0x3b, 0x59, 0xe3, 0x7a, 0x3b, 0x2f, 0x67, 0x76, 0x3b, 0x14, 0xde, 0x8b, 0x3b, 0xd5, 0x82, 0x9a, 0x3b, 0x44, 0xfc, 0x7b, 0x3b, 0xe0, 0x70, 0x1e, 0x3b, 0x43, 0x97, 0x17, 0x3b, 0x82, 0x2a, 0x91, 0x3b, 0x4a, 0x9c, 0x99, 0x3b, 0x12, 0x00, 0x00, 0x00, 0x74, 0x66, 0x6c, 0x2e, 0x70, 0x73, 0x65, 0x75, 0x64, 0x6f, 0x5f, 0x71, 0x63, 0x6f, 0x6e, 0x73, 0x74, 0x33, 0x00, 0x00, 0x02, 0x00, 0x00, 0x00, 0x20, 0x00, 0x00, 0x00, 0x20, 0x00, 0x00, 0x00, 0xf2, 0xfb, 0xff, 0xff, 0x00, 0x00, 0x00, 0x01, 0x14, 0x00, 0x00, 0x00, 0xa4, 0x01, 0x00, 0x00, 0x09, 0x00, 0x00, 0x00, 0x00, 0x00, 0x00, 0x02, 0xb0, 0x01, 0x00, 0x00, 0x74, 0xfb, 0xff, 0xff, 0x08, 0x00, 0x00, 0x00, 0x08, 0x01, 0x00, 0x00, 0x20, 0x00, 0x00, 0x00, 0x00, 0x00, 0x00, 0x00, 0x00, 0x00, 0x00, 0x00, 0x00, 0x00, 0x00, 0x00, 0x00, 0x00, 0x00, 0x00, 0x00, 0x00, 0x00, 0x00, 0x00, 0x00, 0x00, 0x00, 0x00, 0x00, 0x00, 0x00, 0x00, 0x00, 0x00, 0x00, 0x00, 0x00, 0x00, 0x00, 0x00, 0x00, 0x00, 0x00, 0x00, 0x00, 0x00, 0x00, 0x00, 0x00, 0x00, 0x00, 0x00, 0x00, 0x00, 0x00, 0x00, 0x00, 0x00, 0x00, 0x00, 0x00, 0x00, 0x00, 0x00, 0x00, 0x00, 0x00, 0x00, 0x00, 0x00, 0x00, 0x00, 0x00, 0x00, 0x00, 0x00, 0x00, 0x00, 0x00, 0x00, 0x00, 0x00, 0x00, 0x00, 0x00, 0x00, 0x00, 0x00, 0x00, 0x00, 0x00, 0x00, 0x00, 0x00, 0x00, 0x00, 0x00, 0x00, 0x00, 0x00, 0x00, 0x00, 0x00, 0x00, 0x00, 0x00, 0x00, 0x00, 0x00, 0x00, 0x00, 0x00, 0x00, 0x00, 0x00, 0x00, 0x00, 0x00, 0x00, 0x00, 0x00, 0x00, 0x00, 0x00, 0x00, 0x00, 0x00, 0x00, 0x00, 0x00, 0x00, 0x00, 0x00, 0x00, 0x00, 0x00, 0x00, 0x00, 0x00, 0x00, 0x00, 0x00, 0x00, 0x00, 0x00, 0x00, 0x00, 0x00, 0x00, 0x00, 0x00, 0x00, 0x00, 0x00, 0x00, 0x00, 0x00, 0x00, 0x00, 0x00, 0x00, 0x00, 0x00, 0x00, 0x00, 0x00, 0x00, 0x00, 0x00, 0x00, 0x00, 0x00, 0x00, 0x00, 0x00, 0x00, 0x00, 0x00, 0x00, 0x00, 0x00, 0x00, 0x00, 0x00, 0x00, 0x00, 0x00, 0x00, 0x00, 0x00, 0x00, 0x00, 0x00, 0x00, 0x00, 0x00, 0x00, 0x00, 0x00, 0x00, 0x00, 0x00, 0x00, 0x00, 0x00, 0x00, 0x00, 0x00, 0x00, 0x00, 0x00, 0x00, 0x00, 0x00, 0x00, 0x00, 0x00, 0x00, 0x00, 0x00, 0x00, 0x00, 0x00, 0x00, 0x00, 0x00, 0x00, 0x00, 0x00, 0x00, 0x00, 0x00, 0x00, 0x00, 0x00, 0x00, 0x00, 0x00, 0x00, 0x00, 0x00, 0x00, 0x00, 0x00, 0x00, 0x00, 0x00, 0x00, 0x00, 0x00, 0x00, 0x00, 0x00, 0x00, 0x00, 0x00, 0x00, 0x00, 0x00, 0x20, 0x00, 0x00, 0x00, 0xf7, 0x40, 0x6e, 0x38, 0x42, 0xbe, 0x94, 0x38, 0xb7, 0x40, 0xab, 0x38, 0x8f, 0xa2, 0x57, 0x38, 0x12, 0xcd, 0x9b, 0x38, 0x44, 0xd6, 0x8f, 0x38, 0x7c, 0x5f, 0x92, 0x38, 0x5c, 0xe3, 0x8b, 0x38, 0x4d, 0x41, 0x10, 0x38, 0xf2, 0x52, 0x96, 0x38, 0x44, 0x92, 0x56, 0x38, 0x29, 0x5c, 0x7a, 0x38, 0x46, 0x7e, 0x95, 0x38, 0x7f, 0xb0, 0x55, 0x38, 0x9d, 0xac, 0x94, 0x38, 0x12, 0xe8, 0x89, 0x38, 0xb0, 0xa4, 0xa0, 0x38, 0x60, 0x0e, 0x93, 0x38, 0xbe, 0xb6, 0x25, 0x38, 0xc3, 0xb5, 0x82, 0x38, 0x82, 0xb3, 0x6a, 0x38, 0xd0, 0xc2, 0x27, 0x38, 0x72, 0x44, 0x85, 0x38, 0xe2, 0xf6, 0x80, 0x38, 0x61, 0x51, 0x7d, 0x38, 0xe8, 0xca, 0x8f, 0x38, 0xdd, 0xd8, 0x9e, 0x38, 0x48, 0x87, 0x81, 0x38, 0x23, 0xe3, 0x22, 0x38, 0x50, 0xd8, 0x1b, 0x38, 0x67, 0x3d, 0x95, 0x38, 0xd9, 0xeb, 0x9d, 0x38, 0x12, 0x00, 0x00, 0x00, 0x74, 0x66, 0x6c, 0x2e, 0x70, 0x73, 0x65, 0x75, 0x64, 0x6f, 0x5f, 0x71, 0x63, 0x6f, 0x6e, 0x73, 0x74, 0x32, 0x00, 0x00, 0x01, 0x00, 0x00, 0x00, 0x20, 0x00, 0x00, 0x00, 0xc2, 0xfd, 0xff, 0xff, 0x00, 0x00, 0x00, 0x01, 0x14, 0x00, 0x00, 0x00, 0x78, 0x00, 0x00, 0x00, 0x08, 0x00, 0x00, 0x00, 0x00, 0x00, 0x00, 0x09, 0x84, 0x00, 0x00, 0x00, 0x44, 0xfd, 0xff, 0xff, 0x08, 0x00, 0x00, 0x00, 0x40, 0x00, 0x00, 0x00, 0x07, 0x00, 0x00, 0x00, 0x00, 0x00, 0x00, 0x00, 0x00, 0x00, 0x00, 0x00, 0x00, 0x00, 0x00, 0x00, 0x00, 0x00, 0x00, 0x00, 0x00, 0x00, 0x00, 0x00, 0x00, 0x00, 0x00, 0x00, 0x00, 0x00, 0x00, 0x00, 0x00, 0x00, 0x00, 0x00, 0x00, 0x00, 0x00, 0x00, 0x00, 0x00, 0x00, 0x00, 0x00, 0x00, 0x00, 0x00, 0x00, 0x00, 0x00, 0x00, 0x00, 0x00, 0x00, 0x00, 0x00, 0x00, 0x00, 0x00, 0x07, 0x00, 0x00, 0x00, 0xef, 0x09, 0xce, 0x3b, 0x96, 0x0e, 0x91, 0x3b, 0x56, 0x03, 0xac, 0x3b, 0x93, 0x18, 0xbf, 0x3b, 0x0c, 0xcf, 0xf8, 0x3b, 0x9a, 0x92, 0xb0, 0x3b, 0x96, 0x2d, 0xac, 0x3b, 0x12, 0x00, 0x00, 0x00, 0x74, 0x66, 0x6c, 0x2e, 0x70, 0x73, 0x65, 0x75, 0x64, 0x6f, 0x5f, 0x71, 0x63, 0x6f, 0x6e, 0x73, 0x74, 0x31, 0x00, 0x00, 0x02, 0x00, 0x00, 0x00, 0x07, 0x00, 0x00, 0x00, 0x20, 0x00, 0x00, 0x00, 0x6a, 0xfe, 0xff, 0xff, 0x00, 0x00, 0x00, 0x01, 0x14, 0x00, 0x00, 0x00, 0x7c, 0x00, 0x00, 0x00, 0x07, 0x00, 0x00, 0x00, 0x00, 0x00, 0x00, 0x02, 0x88, 0x00, 0x00, 0x00, 0xec, 0xfd, 0xff, 0xff, 0x08, 0x00, 0x00, 0x00, 0x44, 0x00, 0x00, 0x00, 0x07, 0x00, 0x00, 0x00, 0x00, 0x00, 0x00, 0x00, 0x00, 0x00, 0x00, 0x00, 0x00, 0x00, 0x00, 0x00, 0x00, 0x00, 0x00, 0x00, 0x00, 0x00, 0x00, 0x00, 0x00, 0x00, 0x00, 0x00, 0x00, 0x00, 0x00, 0x00, 0x00, 0x00, 0x00, 0x00, 0x00, 0x00, 0x00, 0x00, 0x00, 0x00, 0x00, 0x00, 0x00, 0x00, 0x00, 0x00, 0x00, 0x00, 0x00, 0x00, 0x00, 0x00, 0x00, 0x00, 0x00, 0x00, 0x00, 0x00, 0x00, 0x00, 0x00, 0x00, 0x07, 0x00, 0x00, 0x00, 0xd9, 0xab, 0x7f, 0x39, 0xe6, 0xff, 0x33, 0x39, 0xf6, 0x72, 0x55, 0x39, 0x00, 0x21, 0x6d, 0x39, 0x3d, 0x5f, 0x9a, 0x39, 0x69, 0x1b, 0x5b, 0x39, 0x64, 0xa7, 0x55, 0x39, 0x11, 0x00, 0x00, 0x00, 0x74, 0x66, 0x6c, 0x2e, 0x70, 0x73, 0x65, 0x75, 0x64, 0x6f, 0x5f, 0x71, 0x63, 0x6f, 0x6e, 0x73, 0x74, 0x00, 0x00, 0x00, 0x01, 0x00, 0x00, 0x00, 0x07, 0x00, 0x00, 0x00, 0x12, 0xff, 0xff, 0xff, 0x00, 0x00, 0x00, 0x01, 0x14, 0x00, 0x00, 0x00, 0x14, 0x00, 0x00, 0x00, 0x06, 0x00, 0x00, 0x00, 0x00, 0x00, 0x00, 0x02, 0x1c, 0x00, 0x00, 0x00, 0xfc, 0xfe, 0xff, 0xff, 0x0f, 0x00, 0x00, 0x00, 0x61, 0x72, 0x69, 0x74, 0x68, 0x2e, 0x63, 0x6f, 0x6e, 0x73, 0x74, 0x61, 0x6e, 0x74, 0x34, 0x00, 0x01, 0x00, 0x00, 0x00, 0x03, 0x00, 0x00, 0x00, 0x4e, 0xff, 0xff, 0xff, 0x00, 0x00, 0x00, 0x01, 0x14, 0x00, 0x00, 0x00, 0x14, 0x00, 0x00, 0x00, 0x05, 0x00, 0x00, 0x00, 0x00, 0x00, 0x00, 0x02, 0x1c, 0x00, 0x00, 0x00, 0x38, 0xff, 0xff, 0xff, 0x0f, 0x00, 0x00, 0x00, 0x61, 0x72, 0x69, 0x74, 0x68, 0x2e, 0x63, 0x6f, 0x6e, 0x73, 0x74, 0x61, 0x6e, 0x74, 0x33, 0x00, 0x01, 0x00, 0x00, 0x00, 0x03, 0x00, 0x00, 0x00, 0x8a, 0xff, 0xff, 0xff, 0x00, 0x00, 0x00, 0x01, 0x14, 0x00, 0x00, 0x00, 0x14, 0x00, 0x00, 0x00, 0x04, 0x00, 0x00, 0x00, 0x00, 0x00, 0x00, 0x02, 0x1c, 0x00, 0x00, 0x00, 0x74, 0xff, 0xff, 0xff, 0x0f, 0x00, 0x00, 0x00, 0x61, 0x72, 0x69, 0x74, 0x68, 0x2e, 0x63, 0x6f, 0x6e, 0x73, 0x74, 0x61, 0x6e, 0x74, 0x32, 0x00, 0x00, 0x00, 0x00, 0x00, 0xc2, 0xff, 0xff, 0xff, 0x00, 0x00, 0x00, 0x01, 0x14, 0x00, 0x00, 0x00, 0x14, 0x00, 0x00, 0x00, 0x03, 0x00, 0x00, 0x00, 0x00, 0x00, 0x00, 0x02, 0x1c, 0x00, 0x00, 0x00, 0xac, 0xff, 0xff, 0xff, 0x0f, 0x00, 0x00, 0x00, 0x61, 0x72, 0x69, 0x74, 0x68, 0x2e, 0x63, 0x6f, 0x6e, 0x73, 0x74, 0x61, 0x6e, 0x74, 0x31, 0x00, 0x01, 0x00, 0x00, 0x00, 0x03, 0x00, 0x00, 0x00, 0x00, 0x00, 0x16, 0x00, 0x1c, 0x00, 0x18, 0x00, 0x17, 0x00, 0x10, 0x00, 0x0c, 0x00, 0x08, 0x00, 0x00, 0x00, 0x00, 0x00, 0x00, 0x00, 0x07, 0x00, 0x16, 0x00, 0x00, 0x00, 0x00, 0x00, 0x00, 0x01, 0x18, 0x00, 0x00, 0x00, 0x18, 0x00, 0x00, 0x00, 0x02, 0x00, 0x00, 0x00, 0x00, 0x00, 0x00, 0x02, 0x20, 0x00, 0x00, 0x00, 0x04, 0x00, 0x04, 0x00, 0x04, 0x00, 0x00, 0x00, 0x0e, 0x00, 0x00, 0x00, 0x61, 0x72, 0x69, 0x74, 0x68, 0x2e, 0x63, 0x6f, 0x6e, 0x73, 0x74, 0x61, 0x6e, 0x74, 0x00, 0x00, 0x00, 0x00, 0x00, 0x00, 0x00, 0x00, 0x16, 0x00, 0x20, 0x00, 0x1c, 0x00, 0x1b, 0x00, 0x14, 0x00, 0x10, 0x00, 0x0c, 0x00, 0x00, 0x00, 0x00, 0x00, 0x08, 0x00, 0x07, 0x00, 0x16, 0x00, 0x00, 0x00, 0x00, 0x00, 0x00, 0x01, 0x18, 0x00, 0x00, 0x00, 0x30, 0x00, 0x00, 0x00, 0x50, 0x00, 0x00, 0x00, 0x01, 0x00, 0x00, 0x00, 0x00, 0x00, 0x00, 0x09, 0x68, 0x00, 0x00, 0x00, 0x03, 0x00, 0x00, 0x00, 0xff, 0xff, 0xff, 0xff, 0x32, 0x00, 0x00, 0x00, 0x04, 0x00, 0x00, 0x00, 0x0c, 0x00, 0x0c, 0x00, 0x00, 0x00, 0x00, 0x00, 0x08, 0x00, 0x04, 0x00, 0x0c, 0x00, 0x00, 0x00, 0x08, 0x00, 0x00, 0x00, 0x14, 0x00, 0x00, 0x00, 0x01, 0x00, 0x00, 0x00, 0x80, 0xff, 0xff, 0xff, 0xff, 0xff, 0xff, 0xff, 0x00, 0x00, 0x00, 0x00, 0x01, 0x00, 0x00, 0x00, 0x0c, 0x80, 0x80, 0x3b, 0x1d, 0x00, 0x00, 0x00, 0x73, 0x65, 0x72, 0x76, 0x69, 0x6e, 0x67, 0x5f, 0x64, 0x65, 0x66, 0x61, 0x75, 0x6c, 0x74, 0x5f, 0x69, 0x6e, 0x70, 0x75, 0x74, 0x5f, 0x6c, 0x61, 0x79, 0x65, 0x72, 0x3a, 0x30, 0x00, 0x00, 0x00, 0x03, 0x00, 0x00, 0x00, 0x01, 0x00, 0x00, 0x00, 0x32, 0x00, 0x00, 0x00, 0x04, 0x00, 0x00, 0x00, 0x07, 0x00, 0x00, 0x00, 0x90, 0x00, 0x00, 0x00, 0x70, 0x00, 0x00, 0x00, 0x54, 0x00, 0x00, 0x00, 0x40, 0x00, 0x00, 0x00, 0x2c, 0x00, 0x00, 0x00, 0x18, 0x00, 0x00, 0x00, 0x04, 0x00, 0x00, 0x00, 0xb4, 0xff, 0xff, 0xff, 0x19, 0x00, 0x00, 0x00, 0x02, 0x00, 0x00, 0x00, 0x00, 0x00, 0x00, 0x19, 0xc4, 0xff, 0xff, 0xff, 0x09, 0x00, 0x00, 0x00, 0x04, 0x00, 0x00, 0x00, 0x00, 0x00, 0x00, 0x09, 0xd4, 0xff, 0xff, 0xff, 0x28, 0x00, 0x00, 0x00, 0x02, 0x00, 0x00, 0x00, 0x00, 0x00, 0x00, 0x28, 0xe4, 0xff, 0xff, 0xff, 0x11, 0x00, 0x00, 0x00, 0x02, 0x00, 0x00, 0x00, 0x00, 0x00, 0x00, 0x11, 0xd8, 0xff, 0xff, 0xff, 0x16, 0x00, 0x00, 0x00, 0x00, 0x00, 0x00, 0x16, 0x0c, 0x00, 0x10, 0x00, 0x0f, 0x00, 0x00, 0x00, 0x08, 0x00, 0x04, 0x00, 0x0c, 0x00, 0x00, 0x00, 0x03, 0x00, 0x00, 0x00, 0x03, 0x00, 0x00, 0x00, 0x00, 0x00, 0x00, 0x03, 0x0c, 0x00, 0x0c, 0x00, 0x0b, 0x00, 0x00, 0x00, 0x00, 0x00, 0x04, 0x00, 0x0c, 0x00, 0x00, 0x00, 0x46, 0x00, 0x00, 0x00, 0x00, 0x00, 0x00, 0x46 };
const unsigned int model_data_len = 10824;

#endif
